{
  "version": "1.0",
  "truncation": null,
  "padding": null,
  "added_tokens": [
    {
      "id": 0,
      "content": "<|pad|>",
      "single_word": false,
      "lstrip": false,
      "rstrip": false,
      "normalized": false,
      "special": true
    },
    {
      "id": 1,
      "content": "<|bos|>",
      "single_word": false,
      "lstrip": false,
      "rstrip": false,
      "normalized": false,
      "special": true
    },
    {
      "id": 2,
      "content": "<|eos|>",
      "single_word": false,
      "lstrip": false,
      "rstrip": false,
      "normalized": false,
      "special": true
    },
    {
      "id": 3,
      "content": "<|unk|>",
      "single_word": false,
      "lstrip": false,
      "rstrip": false,
      "normalized": false,
      "special": true
    },
    {
      "id": 4,
      "content": "<|ocm|>",
      "single_word": false,
      "lstrip": false,
      "rstrip": false,
      "normalized": false,
      "special": true
    },
    {
      "id": 5,
      "content": "<|div|>",
      "single_word": false,
      "lstrip": false,
      "rstrip": false,
      "normalized": false,
      "special": true
    }
  ],
  "normalizer": null,
  "pre_tokenizer": {
    "type": "ByteLevel",
    "add_prefix_space": false,
    "trim_offsets": true,
    "use_regex": true
  },
  "post_processor": {
    "type": "TemplateProcessing",
    "single": [
      {
        "Sequence": {
          "id": "A",
          "type_id": 0
        }
      }
    ],
    "pair": [
      {
        "Sequence": {
          "id": "A",
          "type_id": 0
        }
      },
      {
        "Sequence": {
          "id": "B",
          "type_id": 1
        }
      }
    ],
    "special_tokens": {}
  },
  "decoder": {
    "type": "ByteLevel",
    "add_prefix_space": true,
    "trim_offsets": true,
    "use_regex": true
  },
  "model": {
    "type": "BPE",
    "dropout": null,
    "unk_token": null,
    "continuing_subword_prefix": null,
    "end_of_word_suffix": null,
    "fuse_unk": false,
    "byte_fallback": false,
    "ignore_merges": false,
    "vocab": {
      "<|pad|>": 0,
      "<|bos|>": 1,
      "<|eos|>": 2,
      "<|unk|>": 3,
      "<|ocm|>": 4,
      "<|div|>": 5,
      "!": 6,
      "\"": 7,
      "#": 8,
      "$": 9,
      "%": 10,
      "&": 11,
      "'": 12,
      "(": 13,
      ")": 14,
      "*": 15,
      "+": 16,
      ",": 17,
      "-": 18,
      ".": 19,
      "/": 20,
      "0": 21,
      "1": 22,
      "2": 23,
      "3": 24,
      "4": 25,
      "5": 26,
      "6": 27,
      "7": 28,
      "8": 29,
      "9": 30,
      ":": 31,
      ";": 32,
      "<": 33,
      "=": 34,
      ">": 35,
      "?": 36,
      "@": 37,
      "A": 38,
      "B": 39,
      "C": 40,
      "D": 41,
      "E": 42,
      "F": 43,
      "G": 44,
      "H": 45,
      "I": 46,
      "J": 47,
      "K": 48,
      "L": 49,
      "M": 50,
      "N": 51,
      "O": 52,
      "P": 53,
      "Q": 54,
      "R": 55,
      "S": 56,
      "T": 57,
      "U": 58,
      "V": 59,
      "W": 60,
      "X": 61,
      "Y": 62,
      "Z": 63,
      "[": 64,
      "\\": 65,
      "]": 66,
      "^": 67,
      "_": 68,
      "`": 69,
      "a": 70,
      "b": 71,
      "c": 72,
      "d": 73,
      "e": 74,
      "f": 75,
      "g": 76,
      "h": 77,
      "i": 78,
      "j": 79,
      "k": 80,
      "l": 81,
      "m": 82,
      "n": 83,
      "o": 84,
      "p": 85,
      "q": 86,
      "r": 87,
      "s": 88,
      "t": 89,
      "u": 90,
      "v": 91,
      "w": 92,
      "x": 93,
      "y": 94,
      "z": 95,
      "{": 96,
      "|": 97,
      "}": 98,
      "~": 99,
      "¡": 100,
      "¢": 101,
      "£": 102,
      "¤": 103,
      "¥": 104,
      "¦": 105,
      "§": 106,
      "¨": 107,
      "©": 108,
      "ª": 109,
      "«": 110,
      "¬": 111,
      "®": 112,
      "¯": 113,
      "°": 114,
      "±": 115,
      "²": 116,
      "³": 117,
      "´": 118,
      "µ": 119,
      "¶": 120,
      "·": 121,
      "¸": 122,
      "¹": 123,
      "º": 124,
      "»": 125,
      "¼": 126,
      "½": 127,
      "¾": 128,
      "¿": 129,
      "À": 130,
      "Á": 131,
      "Â": 132,
      "Ã": 133,
      "Ä": 134,
      "Å": 135,
      "Æ": 136,
      "Ç": 137,
      "È": 138,
      "É": 139,
      "Ê": 140,
      "Ë": 141,
      "Ì": 142,
      "Í": 143,
      "Î": 144,
      "Ï": 145,
      "Ð": 146,
      "Ñ": 147,
      "Ò": 148,
      "Ó": 149,
      "Ô": 150,
      "Õ": 151,
      "Ö": 152,
      "×": 153,
      "Ø": 154,
      "Ù": 155,
      "Ú": 156,
      "Û": 157,
      "Ü": 158,
      "Ý": 159,
      "Þ": 160,
      "ß": 161,
      "à": 162,
      "á": 163,
      "â": 164,
      "ã": 165,
      "ä": 166,
      "å": 167,
      "æ": 168,
      "ç": 169,
      "è": 170,
      "é": 171,
      "ê": 172,
      "ë": 173,
      "ì": 174,
      "í": 175,
      "î": 176,
      "ï": 177,
      "ð": 178,
      "ñ": 179,
      "ò": 180,
      "ó": 181,
      "ô": 182,
      "õ": 183,
      "ö": 184,
      "÷": 185,
      "ø": 186,
      "ù": 187,
      "ú": 188,
      "û": 189,
      "ü": 190,
      "ý": 191,
      "þ": 192,
      "ÿ": 193,
      "Ā": 194,
      "ā": 195,
      "Ă": 196,
      "ă": 197,
      "Ą": 198,
      "ą": 199,
      "Ć": 200,
      "ć": 201,
      "Ĉ": 202,
      "ĉ": 203,
      "Ċ": 204,
      "ċ": 205,
      "Č": 206,
      "č": 207,
      "Ď": 208,
      "ď": 209,
      "Đ": 210,
      "đ": 211,
      "Ē": 212,
      "ē": 213,
      "Ĕ": 214,
      "ĕ": 215,
      "Ė": 216,
      "ė": 217,
      "Ę": 218,
      "ę": 219,
      "Ě": 220,
      "ě": 221,
      "Ĝ": 222,
      "ĝ": 223,
      "Ğ": 224,
      "ğ": 225,
      "Ġ": 226,
      "ġ": 227,
      "Ģ": 228,
      "ģ": 229,
      "Ĥ": 230,
      "ĥ": 231,
      "Ħ": 232,
      "ħ": 233,
      "Ĩ": 234,
      "ĩ": 235,
      "Ī": 236,
      "ī": 237,
      "Ĭ": 238,
      "ĭ": 239,
      "Į": 240,
      "į": 241,
      "İ": 242,
      "ı": 243,
      "Ĳ": 244,
      "ĳ": 245,
      "Ĵ": 246,
      "ĵ": 247,
      "Ķ": 248,
      "ķ": 249,
      "ĸ": 250,
      "Ĺ": 251,
      "ĺ": 252,
      "Ļ": 253,
      "ļ": 254,
      "Ľ": 255,
      "ľ": 256,
      "Ŀ": 257,
      "ŀ": 258,
      "Ł": 259,
      "ł": 260,
      "Ń": 261,
      "Ġt": 262,
      "he": 263,
      "Ġa": 264,
      "in": 265,
      "Ġthe": 266,
      "Ġo": 267,
      "re": 268,
      "Ġs": 269,
      "er": 270,
      "on": 271,
      "Ġw": 272,
      "at": 273,
      "nd": 274,
      "Ġof": 275,
      "is": 276,
      "Ġc": 277,
      "en": 278,
      "es": 279,
      "it": 280,
      "Ġb": 281,
      "an": 282,
      "ed": 283,
      "al": 284,
      "Ġp": 285,
      "Ġf": 286,
      "or": 287,
      "Ġin": 288,
      "Ġm": 289,
      "Ġand": 290,
      "ar": 291,
      "ou": 292,
      "Ġto": 293,
      "Ġh": 294,
      "Ġd": 295,
      "ing": 296,
      "ic": 297,
      "ion": 298,
      "as": 299,
      "om": 300,
      "le": 301,
      "Ġth": 302,
      "ĠT": 303,
      "Ġn": 304,
      "Ġe": 305,
      "il": 306,
      "ĠA": 307,
      "ent": 308,
      "Ġl": 309,
      "Ġre": 310,
      "ly": 311,
      "âĢ": 312,
      "Ġbe": 313,
      "oc": 314,
      "ĠS": 315,
      "ĠI": 316,
      "ot": 317,
      "Ġg": 318,
      "ve": 319,
      "st": 320,
      "Ġis": 321,
      "se": 322,
      "ol": 323,
      "ct": 324,
      "her": 325,
      "Ġ1": 326,
      "ĠC": 327,
      "im": 328,
      "ad": 329,
      "ut": 330,
      "Ġ(": 331,
      "ro": 332,
      "ir": 333,
      "id": 334,
      "Ġon": 335,
      "ce": 336,
      "am": 337,
      "ation": 338,
      "ur": 339,
      "Ġwh": 340,
      "ĠM": 341,
      "ow": 342,
      "Ġfor": 343,
      "ig": 344,
      "ch": 345,
      "Ġas": 346,
      "ĠThe": 347,
      "Ġthat": 348,
      "Ġu": 349,
      "ver": 350,
      "et": 351,
      "ĠP": 352,
      "ul": 353,
      "ay": 354,
      "ith": 355,
      "<|": 356,
      "|>": 357,
      "ere": 358,
      "TI": 359,
      "ocm": 360,
      "ĠB": 361,
      "Ġst": 362,
      "Ġwith": 363,
      "ri": 364,
      "Ġcon": 365,
      "Ġan": 366,
      "ter": 367,
      "Ġare": 368,
      "ra": 369,
      "Ġit": 370,
      "Ġor": 371,
      "ge": 372,
      "if": 373,
      "Ġal": 374,
      "la": 375,
      "ĠR": 376,
      "ĠH": 377,
      "Ġwas": 378,
      "Ġhe": 379,
      "th": 380,
      "ld": 381,
      "ON": 382,
      "ist": 383,
      "Ġby": 384,
      "pe": 385,
      "ES": 386,
      "ers": 387,
      "un": 388,
      "Ġde": 389,
      "AL": 390,
      "iv": 391,
      "ĠâĢ": 392,
      "Ġse": 393,
      "ĠO": 394,
      "Ġv": 395,
      "od": 396,
      "us": 397,
      "ĠE": 398,
      "Ġ19": 399,
      "Ġnot": 400,
      "Ġha": 401,
      "ER": 402,
      "ĠN": 403,
      "Ġfr": 404,
      "res": 405,
      "em": 406,
      "Ġex": 407,
      "ĠL": 408,
      "ant": 409,
      "Ġsu": 410,
      "ab": 411,
      "ak": 412,
      "est": 413,
      "Ġr": 414,
      "Ġch": 415,
      "Ġat": 416,
      "el": 417,
      "ich": 418,
      "qu": 419,
      "ĠW": 420,
      "ĠD": 421,
      "ies": 422,
      "ore": 423,
      "ĠF": 424,
      "um": 425,
      "Ġfrom": 426,
      "ity": 427,
      "os": 428,
      "op": 429,
      "Ġcom": 430,
      "ND": 431,
      "ain": 432,
      "Ġk": 433,
      "ive": 434,
      "TION": 435,
      "Ġtheir": 436,
      "ial": 437,
      "ess": 438,
      "and": 439,
      "ate": 440,
      "ie": 441,
      "ĠG": 442,
      "og": 443,
      "Ġwhich": 444,
      "Ġhis": 445,
      "âĢĿ": 446,
      "ill": 447,
      "Ġthis": 448,
      "ong": 449,
      "Ġthey": 450,
      "nt": 451,
      "ther": 452,
      "Ġy": 453,
      "ĠâĢľ": 454,
      "Ġwere": 455,
      "gh": 456,
      "ment": 457,
      "rou": 458,
      "ĠAND": 459,
      "Ġ^": 460,
      "ATION": 461,
      "ac": 462,
      "Ġpro": 463,
      "'s": 464,
      "Ġhave": 465,
      "igh": 466,
      "Ġne": 467,
      "pp": 468,
      "ical": 469,
      "ort": 470,
      "ure": 471,
      "Ġ)": 472,
      "ome": 473,
      "Ġ2": 474,
      "Ġsh": 475,
      "art": 476,
      "ult": 477,
      "Ġ{": 478,
      "UR": 479,
      "ous": 480,
      "Âł": 481,
      "RA": 482,
      "ould": 483,
      "our": 484,
      "ap": 485,
      "Ġle": 486,
      "Ġ7": 487,
      "Ġwho": 488,
      "ian": 489,
      "Ġone": 490,
      "all": 491,
      "ĠK": 492,
      "Ġ5": 493,
      "Ġman": 494,
      "ud": 495,
      "ual": 496,
      "ĠĠ": 497,
      "Ġbut": 498,
      "ip": 499,
      "Ġint": 500,
      "Ġhad": 501,
      "cc": 502,
      "ated": 503,
      "ast": 504,
      "ard": 505,
      "Ġother": 506,
      "hen": 507,
      "ĠIn": 508,
      "Ġab": 509,
      "ĠIN": 510,
      "iz": 511,
      "Ġ6": 512,
      "ag": 513,
      "ions": 514,
      "ost": 515,
      "ations": 516,
      "ight": 517,
      "ame": 518,
      "Ġ/": 519,
      "ST": 520,
      "Ġall": 521,
      "Ġthem": 522,
      "ust": 523,
      "LI": 524,
      "EN": 525,
      "Ġwor": 526,
      "ok": 527,
      "out": 528,
      "are": 529,
      "pt": 530,
      "OR": 531,
      "ood": 532,
      "ib": 533,
      "AR": 534,
      ").": 535,
      "au": 536,
      "Ġpr": 537,
      "Ġcont": 538,
      "ĠTh": 539,
      "ĠJ": 540,
      "age": 541,
      "HI": 542,
      "Ġme": 543,
      "av": 544,
      "Ġim": 545,
      "Ġ4": 546,
      "Ġhas": 547,
      "ang": 548,
      "ans": 549,
      "OG": 550,
      "ide": 551,
      "olog": 552,
      "Ġrel": 553,
      "Ġher": 554,
      "Ġcl": 555,
      "Ġwe": 556,
      "Ġun": 557,
      "ine": 558,
      "ĠRE": 559,
      "Ġtr": 560,
      "act": 561,
      "Ġpe": 562,
      "TER": 563,
      "Ġ3": 564,
      "other": 565,
      "own": 566,
      "AN": 567,
      "00": 568,
      "ff": 569,
      "Ġad": 570,
      "Ġpart": 571,
      "Ġper": 572,
      "11": 573,
      "ect": 574,
      "Ġthere": 575,
      "ĠCh": 576,
      "Ġus": 577,
      "ish": 578,
      "Ġ}": 579,
      "ary": 580,
      "ence": 581,
      "ild": 582,
      "ell": 583,
      "Ġres": 584,
      "ance": 585,
      "IN": 586,
      "Ġbeen": 587,
      "ĠU": 588,
      "so": 589,
      "Ġtw": 590,
      "âĢĻ": 591,
      "RI": 592,
      "Ġso": 593,
      "The": 594,
      "ose": 595,
      "able": 596,
      "Ġmore": 597,
      "Ġsome": 598,
      "ik": 599,
      "ire": 600,
      "wn": 601,
      "Ġdis": 602,
      "rib": 603,
      "ition": 604,
      "TS": 605,
      "Ġar": 606,
      "Ġdo": 607,
      "ew": 608,
      "Ġout": 609,
      "ces": 610,
      "ĠSO": 611,
      "ert": 612,
      "UL": 613,
      "ind": 614,
      "ough": 615,
      "ater": 616,
      "Ġsoc": 617,
      "Ġthese": 618,
      "CES": 619,
      "one": 620,
      "Ġsp": 621,
      "ia": 622,
      "mer": 623,
      "Ġev": 624,
      "ach": 625,
      "Ġind": 626,
      "Ġtim": 627,
      "Ġno": 628,
      "Ġpre": 629,
      "ĠV": 630,
      "we": 631,
      "ress": 632,
      "Ġup": 633,
      "Ġcomp": 634,
      "Ġalso": 635,
      "very": 636,
      "Ġag": 637,
      "Ġ8": 638,
      "Ġwom": 639,
      "Ġcomm": 640,
      "ear": 641,
      "Ġ|": 642,
      "Ġcan": 643,
      "uct": 644,
      "orm": 645,
      "Ġj": 646,
      "Ġbec": 647,
      "Ġen": 648,
      "ite": 649,
      "ree": 650,
      "ily": 651,
      "Ġimp": 652,
      "Ġyou": 653,
      "Ġhim": 654,
      "ather": 655,
      "ĠIt": 656,
      "Ġqu": 657,
      "con": 658,
      "ople": 659,
      "Ġmar": 660,
      "ass": 661,
      "ade": 662,
      "ry": 663,
      "Ġwould": 664,
      "Ġexp": 665,
      "Ġgrou": 666,
      "Ġdes": 667,
      "Ġonly": 668,
      "ice": 669,
      "Ġtwo": 670,
      "ious": 671,
      "Ġam": 672,
      "illa": 673,
      "ord": 674,
      "here": 675,
      "ound": 676,
      "BLI": 677,
      "ake": 678,
      "end": 679,
      "ub": 680,
      "Ġmay": 681,
      "Ġwhen": 682,
      "hed": 683,
      "RAP": 684,
      "ings": 685,
      "ount": 686,
      "cl": 687,
      "iff": 688,
      "Ġwill": 689,
      "Ġbet": 690,
      "ren": 691,
      "TUR": 692,
      "Ġgo": 693,
      "ory": 694,
      "IAL": 695,
      "ally": 696,
      "),": 697,
      "Ġpeople": 698,
      "Ġinto": 699,
      "Ġthan": 700,
      "ife": 701,
      "Ġspe": 702,
      "Ġpl": 703,
      "OL": 704,
      "Ġfam": 705,
      "ue": 706,
      "ber": 707,
      "Ġits": 708,
      "ays": 709,
      "OGRAP": 710,
      "Ġchild": 711,
      "ÂłÂł": 712,
      "Ġcons": 713,
      "ĠOF": 714,
      "Ġwork": 715,
      "TH": 716,
      "old": 717,
      "ouse": 718,
      "ph": 719,
      "IC": 720,
      "sel": 721,
      "ative": 722,
      "Ġvilla": 723,
      "19": 724,
      "ric": 725,
      "Ġshe": 726,
      "ep": 727,
      "ile": 728,
      "Ġabout": 729,
      "ĠBI": 730,
      "Ġtime": 731,
      "ĠY": 732,
      "tern": 733,
      "iet": 734,
      ".âĢĿ": 735,
      "ural": 736,
      "les": 737,
      "Ġob": 738,
      "ĠThis": 739,
      "ors": 740,
      "ied": 741,
      "itt": 742,
      "Ġdiff": 743,
      "rop": 744,
      "PO": 745,
      "int": 746,
      "BLIOGRAP": 747,
      "ĠBIBLIOGRAP": 748,
      "uc": 749,
      "ens": 750,
      "URCES": 751,
      "rough": 752,
      "113": 753,
      "Ġ18": 754,
      "ĠSOURCES": 755,
      "HIES": 756,
      "ĠBIBLIOGRAPHIES": 757,
      "resent": 758,
      "vers": 759,
      "Ġ\"": 760,
      "hip": 761,
      "ons": 762,
      "low": 763,
      "reat": 764,
      "Ġoff": 765,
      "Ġcult": 766,
      "Ġkn": 767,
      "erv": 768,
      "Ġrep": 769,
      "ng": 770,
      "Ġund": 771,
      "ween": 772,
      "Ġgroup": 773,
      "ign": 774,
      "oth": 775,
      "Ġacc": 776,
      "ĠInd": 777,
      "red": 778,
      "Ġbr": 779,
      "Ġany": 780,
      "Ġsuch": 781,
      "Ġpla": 782,
      "Ġsa": 783,
      "oy": 784,
      "ĠSt": 785,
      "form": 786,
      "ks": 787,
      "Ġbetween": 788,
      "Ġgen": 789,
      "Ġatt": 790,
      "ook": 791,
      "fter": 792,
      "Ġover": 793,
      "POST": 794,
      "ĠHe": 795,
      "vel": 796,
      "Ġmen": 797,
      "irst": 798,
      "Ġrec": 799,
      "ives": 800,
      "Ġ.": 801,
      "Ġmost": 802,
      "erm": 803,
      "Ġpers": 804,
      "Ġact": 805,
      "ENT": 806,
      "ULTUR": 807,
      "ase": 808,
      "Ġmy": 809,
      "Ġhouse": 810,
      "Ã©": 811,
      "Ġra": 812,
      "ities": 813,
      "Ġyear": 814,
      "Ġform": 815,
      "âĢĵ": 816,
      "Ġstr": 817,
      "ered": 818,
      "ins": 819,
      "Ġpos": 820,
      "Ġpo": 821,
      "ove": 822,
      "ĠREL": 823,
      "Ġapp": 824,
      "urn": 825,
      "ief": 826,
      "amp": 827,
      "ike": 828,
      "ever": 829,
      "Ġsy": 830,
      "ack": 831,
      "kn": 832,
      "12": 833,
      "Ġhow": 834,
      "Ġown": 835,
      "lic": 836,
      "ĠAn": 837,
      "Ġmade": 838,
      "ex": 839,
      "ants": 840,
      "OM": 841,
      "ause": 842,
      "ates": 843,
      "ĠâĢĺ": 844,
      "Ġdist": 845,
      "Ġfirst": 846,
      "Ġwomen": 847,
      "Ġfe": 848,
      "Ġreg": 849,
      "pect": 850,
      "Ġro": 851,
      "TY": 852,
      "ail": 853,
      "Ġif": 854,
      ".,": 855,
      "arly": 856,
      "aw": 857,
      "Ġrem": 858,
      "ll": 859,
      "orn": 860,
      "fore": 861,
      "Ġgener": 862,
      "lect": 863,
      "Ġsocial": 864,
      "Ġass": 865,
      "uch": 866,
      "Ġland": 867,
      "US": 868,
      "ĠUn": 869,
      "hes": 870,
      "Ġmany": 871,
      "ah": 872,
      "17": 873,
      "Ġunder": 874,
      "TIC": 875,
      "ATIONS": 876,
      "cept": 877,
      "fn": 878,
      "âĢĶ": 879,
      "ale": 880,
      "Ġsm": 881,
      "Ġ'": 882,
      "ents": 883,
      "IS": 884,
      "Ġsub": 885,
      "ific": 886,
      "ED": 887,
      "per": 888,
      "mon": 889,
      "ts": 890,
      "AG": 891,
      "meric": 892,
      "Ġinter": 893,
      "cial": 894,
      "ĠThey": 895,
      "ING": 896,
      "ology": 897,
      "AT": 898,
      "Ġwhere": 899,
      "gan": 900,
      "rit": 901,
      "Ġsame": 902,
      "ĠIndian": 903,
      "Ġvery": 904,
      "RO": 905,
      "Ġinc": 906,
      "..": 907,
      "Ġthose": 908,
      "Ġthen": 909,
      "led": 910,
      "its": 911,
      "AC": 912,
      "ĠOn": 913,
      "Ġlar": 914,
      "Ġvillage": 915,
      "uring": 916,
      "Ġfamily": 917,
      "Ġcol": 918,
      "land": 919,
      "Ġem": 920,
      "ĠAs": 921,
      "ced": 922,
      "Ġused": 923,
      "Ġthrough": 924,
      "Ġamong": 925,
      "Ġpol": 926,
      "Ġocc": 927,
      "ved": 928,
      "Ġfol": 929,
      "Ġdiffere": 930,
      "Ġwell": 931,
      "ful": 932,
      "Ġsc": 933,
      "ves": 934,
      "ĠTH": 935,
      "ond": 936,
      "ath": 937,
      "Ġcommun": 938,
      "Ġcent": 939,
      "Ġset": 940,
      "row": 941,
      "Ġ197": 942,
      "known": 943,
      "ited": 944,
      "Ġeven": 945,
      "te": 946,
      "Ġold": 947,
      "Ġchildren": 948,
      "Ġeach": 949,
      "Ġref": 950,
      "ract": 951,
      "ĠAmeric": 952,
      "Ġco": 953,
      "Ġcould": 954,
      "Ġafter": 955,
      "Ġ[": 956,
      "Ġcall": 957,
      "53": 958,
      "Ġnum": 959,
      "EM": 960,
      "Ġ,": 961,
      "Ġ17": 962,
      "ern": 963,
      "Ġ196": 964,
      "ject": 965,
      "als": 966,
      "Ġnew": 967,
      "ually": 968,
      "Ġsaid": 969,
      "ange": 970,
      "Ġlong": 971,
      "ments": 972,
      "Ġfact": 973,
      "raph": 974,
      "ise": 975,
      "Ġmem": 976,
      "Ġent": 977,
      "ines": 978,
      "Ġmarri": 979,
      "IST": 980,
      "Ġbecause": 981,
      "Ġdisc": 982,
      "Ġap": 983,
      "Ġlike": 984,
      "ĠLI": 985,
      "ished": 986,
      "the": 987,
      "EX": 988,
      "ai": 989,
      "Ġpresent": 990,
      "ivers": 991,
      "iss": 992,
      "ivid": 993,
      "NG": 994,
      "iety": 995,
      "throp": 996,
      "Ġfar": 997,
      "Ġvar": 998,
      "Ġbel": 999,
      "Ġimport": 1000,
      "ft": 1001,
      "Ġstud": 1002,
      "aj": 1003,
      "iew": 1004,
      "Ġac": 1005,
      "unknown": 1006,
      "Ġdid": 1007,
      "ized": 1008,
      "ower": 1009,
      "OLOG": 1010,
      "âĸ": 1011,
      "ological": 1012,
      "Ġext": 1013,
      "ince": 1014,
      "ob": 1015,
      "Ġinv": 1016,
      "âĸ¡": 1017,
      "ĠST": 1018,
      "ures": 1019,
      "Ġuse": 1020,
      "Ġfollow": 1021,
      "Ġsmall": 1022,
      "Ġperson": 1023,
      "Ġwhat": 1024,
      "und": 1025,
      "bers": 1026,
      "ible": 1027,
      "Ġagain": 1028,
      "ars": 1029,
      "ism": 1030,
      "ix": 1031,
      "Ġterm": 1032,
      "Ġinst": 1033,
      "Ġhand": 1034,
      "VE": 1035,
      "VI": 1036,
      "ward": 1037,
      "CH": 1038,
      "Ġboth": 1039,
      ",âĢĿ": 1040,
      "Ġtrad": 1041,
      "ĠTHE": 1042,
      "ient": 1043,
      "up": 1044,
      "Ġloc": 1045,
      "ten": 1046,
      "uth": 1047,
      "Ġpartic": 1048,
      "Ġbeing": 1049,
      "Ġmust": 1050,
      "ble": 1051,
      "stem": 1052,
      "pl": 1053,
      "Ġbas": 1054,
      "ters": 1055,
      "conom": 1056,
      "OLOGY": 1057,
      "ution": 1058,
      "duct": 1059,
      "Ġyears": 1060,
      "ys": 1061,
      "Ġmuch": 1062,
      "Ġed": 1063,
      "Ġthree": 1064,
      "self": 1065,
      "ating": 1066,
      "Ġfound": 1067,
      "Ġlife": 1068,
      "ident": 1069,
      "ield": 1070,
      "Ġsupp": 1071,
      "ee": 1072,
      "Ġpat": 1073,
      "ĠRELATIONS": 1074,
      "ined": 1075,
      "ck": 1076,
      "Ġrelations": 1077,
      "Ġchief": 1078,
      "Ġdesc": 1079,
      "Ġsee": 1080,
      "Ġprov": 1081,
      "Ġconsid": 1082,
      "000": 1083,
      "ick": 1084,
      "ular": 1085,
      "ted": 1086,
      "Ġ198": 1087,
      "Ġte": 1088,
      "UN": 1089,
      "Ġposs": 1090,
      "ists": 1091,
      "ertain": 1092,
      "Ġgreat": 1093,
      "Ġtak": 1094,
      "ven": 1095,
      "ork": 1096,
      "Ġsim": 1097,
      "Ġtra": 1098,
      "clud": 1099,
      "uss": 1100,
      "Ġshould": 1101,
      "Ġlarge": 1102,
      "Ġret": 1103,
      "Ġfather": 1104,
      "Ġcar": 1105,
      "Ġord": 1106,
      "Ġmother": 1107,
      "ĠAl": 1108,
      "Ġgiv": 1109,
      "tle": 1110,
      "Ġ79": 1111,
      "ization": 1112,
      "ting": 1113,
      "Ġsystem": 1114,
      "Ġhead": 1115,
      "ĠMA": 1116,
      "ĠNew": 1117,
      "ĠEX": 1118,
      "Ġplace": 1119,
      "Ġway": 1120,
      "ug": 1121,
      "man": 1122,
      "10": 1123,
      "ink": 1124,
      "Ġknow": 1125,
      "AM": 1126,
      "Ġappe": 1127,
      "ittle": 1128,
      "Ġanother": 1129,
      "Ġyoung": 1130,
      "CE": 1131,
      "arent": 1132,
      "omet": 1133,
      "ction": 1134,
      "iversity": 1135,
      "ages": 1136,
      "ility": 1137,
      "ĠTEX": 1138,
      "Ġdifferent": 1139,
      "Ġour": 1140,
      "vern": 1141,
      "Ġbefore": 1142,
      "Ġgood": 1143,
      "Ġsur": 1144,
      "RE": 1145,
      "Ġtrib": 1146,
      "Ġ77": 1147,
      "Ġwoman": 1148,
      "Ġinf": 1149,
      "ier": 1150,
      "Ġend": 1151,
      "outh": 1152,
      "ĠTEXTS": 1153,
      "ĠBut": 1154,
      "13": 1155,
      "Ġ9": 1156,
      "ational": 1157,
      "thn": 1158,
      "ont": 1159,
      "Ġwhile": 1160,
      "Ġtrans": 1161,
      "ograph": 1162,
      "Ġhowever": 1163,
      "Ġval": 1164,
      "Ġbu": 1165,
      "Ġduring": 1166,
      "24": 1167,
      "Ġmat": 1168,
      "Ġdec": 1169,
      "ARY": 1170,
      "ORY": 1171,
      "Ġthough": 1172,
      "anc": 1173,
      "ividual": 1174,
      "Ġnow": 1175,
      "velop": 1176,
      "ÂłÂłÂłÂł": 1177,
      "ĠAmerican": 1178,
      "Ġchar": 1179,
      "Ġ195": 1180,
      "Ġpoint": 1181,
      "EC": 1182,
      "eremon": 1183,
      "ITY": 1184,
      "Ġproc": 1185,
      "ĠCOM": 1186,
      "IL": 1187,
      "ace": 1188,
      "ool": 1189,
      "ior": 1190,
      "Ġseem": 1191,
      "TERN": 1192,
      "Ġmake": 1193,
      "ĠThere": 1194,
      "round": 1195,
      "Ġest": 1196,
      "Ġback": 1197,
      "23": 1198,
      "Ġnumber": 1199,
      "ĠRe": 1200,
      "Ġadd": 1201,
      "UC": 1202,
      "Ġeconom": 1203,
      "15": 1204,
      "OD": 1205,
      "Ġpop": 1206,
      "Ġbl": 1207,
      "ĠHIST": 1208,
      "Ġgr": 1209,
      "Ġfew": 1210,
      "hing": 1211,
      "Ġmod": 1212,
      "though": 1213,
      "Ġnat": 1214,
      "Ġcalled": 1215,
      "Ġmembers": 1216,
      "Ġindividual": 1217,
      "ĠUniversity": 1218,
      "ock": 1219,
      "CULTUR": 1220,
      "Ġinform": 1221,
      "IZ": 1222,
      "Ġeff": 1223,
      "Ġlittle": 1224,
      "ty": 1225,
      "ĠETH": 1226,
      "mb": 1227,
      "Ġhist": 1228,
      "ĠCULTUR": 1229,
      "pend": 1230,
      "tain": 1231,
      "Ġevery": 1232,
      "Ġceremon": 1233,
      "TERIAL": 1234,
      "ĠMATERIAL": 1235,
      "hold": 1236,
      "Ġpolit": 1237,
      "ges": 1238,
      "Ġnor": 1239,
      "Ġday": 1240,
      "Ġdoes": 1241,
      "Ġpp": 1242,
      "Ġgiven": 1243,
      "Ġwife": 1244,
      "Ġliv": 1245,
      "ically": 1246,
      "ERS": 1247,
      "get": 1248,
      "uk": 1249,
      "ung": 1250,
      "ĠWhen": 1251,
      "UP": 1252,
      "ably": 1253,
      "Ġconc": 1254,
      "istic": 1255,
      "ĠOR": 1256,
      "ĠAr": 1257,
      "ĠWh": 1258,
      "Ġmain": 1259,
      "ulation": 1260,
      "read": 1261,
      "uthor": 1262,
      "Ġoften": 1263,
      "TICAL": 1264,
      "Ġmon": 1265,
      "Ġty": 1266,
      "air": 1267,
      "18": 1268,
      "way": 1269,
      "ention": 1270,
      "62": 1271,
      "Ġimportant": 1272,
      "ĠCON": 1273,
      "Ġcontr": 1274,
      "ness": 1275,
      "ave": 1276,
      "Ġph": 1277,
      "ving": 1278,
      "Ġhigh": 1279,
      "Ġconf": 1280,
      "ket": 1281,
      "Ġprop": 1282,
      "Ġfour": 1283,
      "str": 1284,
      "ict": 1285,
      "Ġ78": 1286,
      "Ġfood": 1287,
      "Ġcertain": 1288,
      "irl": 1289,
      "ĠIf": 1290,
      "OT": 1291,
      "Ġdef": 1292,
      "Ġmet": 1293,
      "Ġstill": 1294,
      "Ġwar": 1295,
      "ize": 1296,
      "Ġgra": 1297,
      "angu": 1298,
      "ĠTRA": 1299,
      "21": 1300,
      "Ġcase": 1301,
      "ĠFor": 1302,
      "ĠAC": 1303,
      "erest": 1304,
      "oun": 1305,
      "Ġke": 1306,
      "Ġstat": 1307,
      "Ġwater": 1308,
      "Ġupon": 1309,
      "In": 1310,
      "ms": 1311,
      "band": 1312,
      "Ġlead": 1313,
      "Ġgroups": 1314,
      "64": 1315,
      "Ġright": 1316,
      "ared": 1317,
      "ral": 1318,
      "Ġorgan": 1319,
      "ros": 1320,
      "Ġsch": 1321,
      "Ġdown": 1322,
      "Ġpub": 1323,
      "cond": 1324,
      "Ġear": 1325,
      "Ġrit": 1326,
      "aking": 1327,
      "ET": 1328,
      "augh": 1329,
      "Ġdevelop": 1330,
      "ĠETHN": 1331,
      "Ġ-": 1332,
      "iod": 1333,
      "ked": 1334,
      "arch": 1335,
      "ĠPRO": 1336,
      "Ġculture": 1337,
      "igin": 1338,
      "ently": 1339,
      "Ġop": 1340,
      "Ġcle": 1341,
      "ec": 1342,
      "Ġpur": 1343,
      "oci": 1344,
      "Ġcount": 1345,
      "Ġ193": 1346,
      "Ġpract": 1347,
      "ices": 1348,
      "selves": 1349,
      "Ã¡": 1350,
      "Ġsign": 1351,
      "Ġhus": 1352,
      "Ġaff": 1353,
      "ither": 1354,
      "GAN": 1355,
      "Ġfl": 1356,
      "ĠHISTORY": 1357,
      "Ġinterest": 1358,
      "Ġinclud": 1359,
      "Ġcomple": 1360,
      "ĠORGAN": 1361,
      "ĠORGANIZ": 1362,
      "Ġcommunity": 1363,
      "ried": 1364,
      "Ġgirl": 1365,
      "Ġcontin": 1366,
      "Ġremain": 1367,
      "Ġdet": 1368,
      "Ġet": 1369,
      "Ġpower": 1370,
      "ds": 1371,
      "Ġla": 1372,
      "Ġtake": 1373,
      "Ġspir": 1374,
      "Ġcour": 1375,
      "AB": 1376,
      "Ġes": 1377,
      "Ġsomet": 1378,
      "Ġcame": 1379,
      "14": 1380,
      "Ġbrother": 1381,
      "ata": 1382,
      "Ġmight": 1383,
      "Ġwithin": 1384,
      "itions": 1385,
      "Ġsay": 1386,
      "Ġbeh": 1387,
      "Ġ53": 1388,
      "Ġperiod": 1389,
      "ĠCom": 1390,
      "gg": 1391,
      "ning": 1392,
      "vernment": 1393,
      "TIVE": 1394,
      "Ġhusband": 1395,
      "Ġpri": 1396,
      "Ġsit": 1397,
      "Ġhere": 1398,
      "Ġgeneral": 1399,
      "par": 1400,
      "ĠAN": 1401,
      "Ġless": 1402,
      "Ġserv": 1403,
      "ĠAt": 1404,
      "Ġcome": 1405,
      "Ġarea": 1406,
      "Ġdire": 1407,
      "Ġname": 1408,
      "Ġclass": 1409,
      "pan": 1410,
      "ute": 1411,
      "oh": 1412,
      "ason": 1413,
      "ĠThese": 1414,
      "Ġsk": 1415,
      "Ġfield": 1416,
      "Ġtradition": 1417,
      "ne": 1418,
      "Ġwithout": 1419,
      "Ġ15": 1420,
      "ĠLITER": 1421,
      "Ġcommon": 1422,
      "ases": 1423,
      "Ġthemselves": 1424,
      "ues": 1425,
      "ample": 1426,
      "Ġrelig": 1427,
      "lished": 1428,
      "HIP": 1429,
      "igr": 1430,
      "Ġvis": 1431,
      "Ġcor": 1432,
      "enc": 1433,
      "uman": 1434,
      "Ġ10": 1435,
      "Ġjust": 1436,
      "ality": 1437,
      "Ġhousehold": 1438,
      "Ġfamil": 1439,
      "EV": 1440,
      "Ġmarriage": 1441,
      "ĠIndians": 1442,
      "43": 1443,
      "28": 1444,
      "Ġmed": 1445,
      "Ġothers": 1446,
      "inc": 1447,
      "Ġrepresent": 1448,
      "nce": 1449,
      "Ġsever": 1450,
      "TERNAL": 1451,
      "ull": 1452,
      "61": 1453,
      "less": 1454,
      "Ġ))": 1455,
      "Ġel": 1456,
      "Ġreturn": 1457,
      "Ġanim": 1458,
      "ĠRES": 1459,
      "Ġdr": 1460,
      "eg": 1461,
      "amb": 1462,
      "Ġsociety": 1463,
      "Ġpolitical": 1464,
      "ways": 1465,
      "ody": 1466,
      "Ġorder": 1467,
      "Ġline": 1468,
      "AP": 1469,
      "Ġseveral": 1470,
      "26": 1471,
      "iqu": 1472,
      "ark": 1473,
      "ately": 1474,
      "Ġhome": 1475,
      "Ġsince": 1476,
      "ury": 1477,
      "imes": 1478,
      "men": 1479,
      "ret": 1480,
      "ANT": 1481,
      "27": 1482,
      "25": 1483,
      "Ġkind": 1484,
      "ĠSP": 1485,
      "Ġshow": 1486,
      "Ġethn": 1487,
      "Ġrelationship": 1488,
      "Ġneed": 1489,
      "Ġart": 1490,
      "Ġser": 1491,
      "Ġins": 1492,
      "Ġspec": 1493,
      "ĠMan": 1494,
      "ĠSOC": 1495,
      "Ġunt": 1496,
      "lish": 1497,
      "ances": 1498,
      "Ġlab": 1499,
      "ĠâĢĶ": 1500,
      "Ġ13": 1501,
      "Ġnever": 1502,
      "EL": 1503,
      "Ġ194": 1504,
      "Ġlocal": 1505,
      "Ġget": 1506,
      "Ġauthor": 1507,
      "ission": 1508,
      "osed": 1509,
      "Ġcap": 1510,
      "Ġfind": 1511,
      "Ġobs": 1512,
      "ĠIs": 1513,
      "ner": 1514,
      "ĠWe": 1515,
      "Ġsecond": 1516,
      "Ġide": 1517,
      "Ġdiscuss": 1518,
      "AGE": 1519,
      "ĠZ": 1520,
      "ames": 1521,
      "ĠLITERARY": 1522,
      "Ġresult": 1523,
      "Ġsing": 1524,
      "Ġmater": 1525,
      "ĠFr": 1526,
      "Ġfore": 1527,
      "view": 1528,
      "ording": 1529,
      "ĠAnd": 1530,
      "pr": 1531,
      "ov": 1532,
      "54": 1533,
      "ton": 1534,
      "Ġanthrop": 1535,
      "Ġgu": 1536,
      "me": 1537,
      "ple": 1538,
      "ross": 1539,
      "PL": 1540,
      "ians": 1541,
      "io": 1542,
      "Ġson": 1543,
      "Ġstudy": 1544,
      "ides": 1545,
      "Ġpar": 1546,
      "Ġeconomic": 1547,
      "ash": 1548,
      "ĠMAR": 1549,
      "Ġalways": 1550,
      "Ġrest": 1551,
      "Ġrather": 1552,
      "57": 1553,
      "Ġread": 1554,
      "ĠNOT": 1555,
      "Ġboy": 1556,
      "Ġfin": 1557,
      "Ġhel": 1558,
      "ling": 1559,
      "thern": 1560,
      "Ġwent": 1561,
      "duc": 1562,
      "Ġorigin": 1563,
      "idd": 1564,
      "ĠSh": 1565,
      "ĠAf": 1566,
      "ense": 1567,
      "Ġconsider": 1568,
      "Ġtoo": 1569,
      "ased": 1570,
      "Ġanal": 1571,
      "med": 1572,
      "idence": 1573,
      "ina": 1574,
      "lu": 1575,
      "Ġstruct": 1576,
      "ke": 1577,
      "EVANT": 1578,
      "ĠRELEVANT": 1579,
      "Ġcharact": 1580,
      "Ġ59": 1581,
      "Ġmo": 1582,
      "Ġmil": 1583,
      "Ġagainst": 1584,
      "ience": 1585,
      "cess": 1586,
      "Ġput": 1587,
      "stit": 1588,
      "Ġanc": 1589,
      "ĠAR": 1590,
      "Ġbook": 1591,
      "Ġpass": 1592,
      "Ġlangu": 1593,
      "alth": 1594,
      "Ġdescrib": 1595,
      "ef": 1596,
      "to": 1597,
      "Ġleft": 1598,
      "Ġschool": 1599,
      "DEN": 1600,
      "Ġgre": 1601,
      "ĠCONT": 1602,
      "Ġcultural": 1603,
      "ĠPress": 1604,
      "Ġexample": 1605,
      "Ġopp": 1606,
      "Ġ199": 1607,
      "Ġritual": 1608,
      "Ġpres": 1609,
      "ĠSoc": 1610,
      "16": 1611,
      "Ġ16": 1612,
      "ank": 1613,
      "not": 1614,
      "Ġhun": 1615,
      "Ġpopulation": 1616,
      "Ġproble": 1617,
      "Ġri": 1618,
      "Ġaway": 1619,
      "Ġuntil": 1620,
      "Ġav": 1621,
      "Ġill": 1622,
      "ĠEXTERNAL": 1623,
      "ORE": 1624,
      "ĠCER": 1625,
      "Ġfun": 1626,
      "'t": 1627,
      "Ġ57": 1628,
      "Ġparent": 1629,
      "Ġresp": 1630,
      "Ġbeg": 1631,
      "Ġhelp": 1632,
      "ĠOne": 1633,
      "22": 1634,
      "aps": 1635,
      "ger": 1636,
      "omin": 1637,
      "ĠNor": 1638,
      "IO": 1639,
      "ired": 1640,
      "Ġspecial": 1641,
      "lack": 1642,
      "Ġ((": 1643,
      "Ġquest": 1644,
      "Ġmeans": 1645,
      "ird": 1646,
      "atives": 1647,
      "Ġconcern": 1648,
      "pecial": 1649,
      "ien": 1650,
      "Ġpot": 1651,
      "Ġcharacter": 1652,
      "Ġterms": 1653,
      "gether": 1654,
      "Ġtogether": 1655,
      "Ġ43": 1656,
      "Ġcollect": 1657,
      "Ġincre": 1658,
      "oss": 1659,
      "Ġkill": 1660,
      "Ġtaken": 1661,
      "Ġdirect": 1662,
      "Ġdeath": 1663,
      "wh": 1664,
      "OP": 1665,
      "ĠShe": 1666,
      "Ġmin": 1667,
      ".)": 1668,
      "Ġusually": 1669,
      "Ġdiv": 1670,
      "TING": 1671,
      "ided": 1672,
      "ĠCULTURE": 1673,
      "Ġearly": 1674,
      "ĠYork": 1675,
      "wa": 1676,
      "li": 1677,
      "ru": 1678,
      "ics": 1679,
      "ley": 1680,
      "lo": 1681,
      "Ġprocess": 1682,
      "LA": 1683,
      "ĠORI": 1684,
      "Ġfre": 1685,
      "Ġgive": 1686,
      "ENTATION": 1687,
      "Ġworld": 1688,
      "ORETICAL": 1689,
      "ĠTHEORETICAL": 1690,
      "ĠORIENTATION": 1691,
      "Ġbecome": 1692,
      "Ġaround": 1693,
      "Ġview": 1694,
      "ories": 1695,
      "ĠDI": 1696,
      "Ġtimes": 1697,
      "Ġmaterial": 1698,
      "56": 1699,
      "ustom": 1700,
      "uro": 1701,
      "Ġlast": 1702,
      "Ġfish": 1703,
      "ived": 1704,
      "HIPS": 1705,
      "duction": 1706,
      "Ġequ": 1707,
      "Ġprim": 1708,
      "Ġrequ": 1709,
      "FIC": 1710,
      "Ġgovernment": 1711,
      "Ġbo": 1712,
      "Ġprev": 1713,
      "Ġstand": 1714,
      "ume": 1715,
      "Ġvol": 1716,
      "Ġregard": 1717,
      "most": 1718,
      "Ġwhite": 1719,
      "Ġdays": 1720,
      "ajor": 1721,
      "Ġlater": 1722,
      "Ġknown": 1723,
      "Ġage": 1724,
      "Ġturn": 1725,
      "ana": 1726,
      "ats": 1727,
      "Ġrece": 1728,
      "ript": 1729,
      "Ġactiv": 1730,
      "ised": 1731,
      "IT": 1732,
      "Ġfamilies": 1733,
      "02": 1734,
      "Ġnear": 1735,
      "Ġident": 1736,
      "Ġhuman": 1737,
      "por": 1738,
      "Ġside": 1739,
      "ICAL": 1740,
      "urther": 1741,
      "TIES": 1742,
      "MENT": 1743,
      "cent": 1744,
      "ĠAnthrop": 1745,
      "ateg": 1746,
      "ccess": 1747,
      "ĠAfric": 1748,
      "Ġmean": 1749,
      "eed": 1750,
      "....": 1751,
      "min": 1752,
      "ext": 1753,
      "estern": 1754,
      "ened": 1755,
      "ision": 1756,
      "of": 1757,
      "Ġtold": 1758,
      "ĠRELATIONSHIPS": 1759,
      "âĢľ": 1760,
      "Ġeffect": 1761,
      "29": 1762,
      "Ġadv": 1763,
      "inese": 1764,
      "che": 1765,
      "Ġfollowing": 1766,
      "Ġaccount": 1767,
      "Ġpattern": 1768,
      "ÃŃ": 1769,
      "Ġindic": 1770,
      "Ġrese": 1771,
      "Ġtoward": 1772,
      "Ġvarious": 1773,
      "Ġpast": 1774,
      "ĠMar": 1775,
      "use": 1776,
      "Ġwhole": 1777,
      "Ġnecess": 1778,
      "Ġappro": 1779,
      "rict": 1780,
      "eng": 1781,
      "__": 1782,
      "ae": 1783,
      "be": 1784,
      "48": 1785,
      "ended": 1786,
      "Ġrespect": 1787,
      "ĠSTAT": 1788,
      "Ġtook": 1789,
      "alf": 1790,
      "ote": 1791,
      "pecially": 1792,
      "ultural": 1793,
      "Ġmajor": 1794,
      "Ġsugg": 1795,
      "day": 1796,
      "nal": 1797,
      "Ġsuggest": 1798,
      "ified": 1799,
      "Ġreport": 1800,
      "Ġtre": 1801,
      "ĠSe": 1802,
      "Ġcare": 1803,
      "EA": 1804,
      "Ġperform": 1805,
      "ĠNo": 1806,
      "Ġcond": 1807,
      "Ġeither": 1808,
      "Ġsimil": 1809,
      "Ġassoci": 1810,
      "bor": 1811,
      "rought": 1812,
      "ĠDe": 1813,
      "side": 1814,
      "20": 1815,
      "irc": 1816,
      "ales": 1817,
      "ERTY": 1818,
      "ĠAm": 1819,
      "Ġclose": 1820,
      "GE": 1821,
      "iver": 1822,
      "Ġsac": 1823,
      "riend": 1824,
      "ĠHow": 1825,
      "Ġcat": 1826,
      "Ġhimself": 1827,
      "121": 1828,
      "Ġexpress": 1829,
      "Ġprob": 1830,
      "Ġ||": 1831,
      "Ġabove": 1832,
      "son": 1833,
      "empt": 1834,
      "ax": 1835,
      "stand": 1836,
      "co": 1837,
      "Ġtown": 1838,
      "Ġcountry": 1839,
      "Th": 1840,
      "Ġpublic": 1841,
      "ribut": 1842,
      "Ġoffic": 1843,
      "Ġfig": 1844,
      "Ġseen": 1845,
      "ACT": 1846,
      "ingu": 1847,
      "ĠSAC": 1848,
      "Ġlo": 1849,
      "Ġchang": 1850,
      "Ġwr": 1851,
      "Ġliving": 1852,
      "Ġlook": 1853,
      "Ġdata": 1854,
      "Ġvillages": 1855,
      "ĠACCULTUR": 1856,
      "ĠACCULTURATION": 1857,
      "ĠCONTACT": 1858,
      "Ġestab": 1859,
      "ged": 1860,
      "az": 1861,
      "Ġground": 1862,
      "Ġnon": 1863,
      "ional": 1864,
      "Ġdep": 1865,
      "Ġstate": 1866,
      "Ġthus": 1867,
      "ogn": 1868,
      "Ġsuccess": 1869,
      "Ġi": 1870,
      "hod": 1871,
      "--": 1872,
      "ĠSTATUS": 1873,
      "END": 1874,
      "EMON": 1875,
      "Ġsum": 1876,
      "Äģ": 1877,
      "Ġpossible": 1878,
      "Ġbehav": 1879,
      "ital": 1880,
      "Ġfem": 1881,
      "Ġoccas": 1882,
      "Ġlat": 1883,
      "iter": 1884,
      "ones": 1885,
      "OC": 1886,
      "ying": 1887,
      "laim": 1888,
      "Ġinvol": 1889,
      "Ġsupport": 1890,
      "Ġplay": 1891,
      "Ġinflu": 1892,
      "alk": 1893,
      "Ġespecially": 1894,
      "ister": 1895,
      "oney": 1896,
      "EW": 1897,
      "Ġcustom": 1898,
      "ĠPRA": 1899,
      "Ġsex": 1900,
      "Ġexper": 1901,
      "ploy": 1902,
      "icult": 1903,
      "Ġ14": 1904,
      "ĠChinese": 1905,
      "ĠEng": 1906,
      "ĠLe": 1907,
      "ĠCEREMON": 1908,
      "ued": 1909,
      "ths": 1910,
      "Ġsitu": 1911,
      "ĠCEREMONIAL": 1912,
      "Ġoccur": 1913,
      "Ġexist": 1914,
      "MUN": 1915,
      "akes": 1916,
      "Ġ20": 1917,
      "Ġleg": 1918,
      "exic": 1919,
      "ION": 1920,
      "Ġlanguage": 1921,
      "MUNITY": 1922,
      "ĠCol": 1923,
      "DUC": 1924,
      "Ġtraditional": 1925,
      "Ġbody": 1926,
      "Ġalthough": 1927,
      "ams": 1928,
      "Ġclan": 1929,
      "77": 1930,
      "Ġgrow": 1931,
      "urope": 1932,
      "ERAP": 1933,
      "Ġcontrol": 1934,
      "FICATION": 1935,
      "Ġsimilar": 1936,
      "Ġcases": 1937,
      "ĠHO": 1938,
      "incip": 1939,
      "Ġlive": 1940,
      "Ġleast": 1941,
      "ANS": 1942,
      "Ġbecame": 1943,
      "Ġbrought": 1944,
      "Ġalong": 1945,
      "Ġfarm": 1946,
      "Ġsometimes": 1947,
      "65": 1948,
      "QU": 1949,
      "ĠPROP": 1950,
      "Ġdaugh": 1951,
      "Ġdra": 1952,
      "Ġmove": 1953,
      "Ġlim": 1954,
      "Ġele": 1955,
      "ĠINTER": 1956,
      "Ġplant": 1957,
      "Ġbelie": 1958,
      "Ġkins": 1959,
      "Ġparents": 1960,
      "Ġdem": 1961,
      "Ġdifficult": 1962,
      "Ġobject": 1963,
      "ĠPr": 1964,
      "Ġcirc": 1965,
      "Ġfriend": 1966,
      "ration": 1967,
      "Ġobserv": 1968,
      "ency": 1969,
      "Ġspirit": 1970,
      "Ġseems": 1971,
      "ĠMexic": 1972,
      "Ġsignific": 1973,
      "sh": 1974,
      "ĠĠĠ": 1975,
      "urch": 1976,
      "Ġexcept": 1977,
      "ĠTo": 1978,
      "arn": 1979,
      "ARCH": 1980,
      "Ġter": 1981,
      "ENTS": 1982,
      "haps": 1983,
      "ouses": 1984,
      "ĠORGANIZED": 1985,
      "Ġparticular": 1986,
      "Ġsec": 1987,
      "Ġposition": 1988,
      "Ġreligious": 1989,
      "Ġchange": 1990,
      "Ġalmost": 1991,
      "ka": 1992,
      "sy": 1993,
      "struct": 1994,
      "Ġpay": 1995,
      "Ġoccup": 1996,
      "Ġwhom": 1997,
      "Ġwant": 1998,
      "Ġstrong": 1999,
      "Ġwhose": 2000,
      "Ġreal": 2001,
      "Ġ23": 2002,
      "Ġconcept": 2003,
      "ential": 2004,
      "Ġ58": 2005,
      "Ġhaving": 2006,
      "Ġlevel": 2007,
      "ead": 2008,
      "Ġfrequ": 2009,
      "Ġwhe": 2010,
      "Ġeas": 2011,
      "ĠMARRI": 2012,
      "Ġhold": 2013,
      "Ġbus": 2014,
      "ban": 2015,
      "let": 2016,
      "Ġprincip": 2017,
      "ara": 2018,
      "ĠEurope": 2019,
      "Ġcur": 2020,
      "oe": 2021,
      "Ġnight": 2022,
      "Ġtyp": 2023,
      "Ġsubject": 2024,
      "Ġcr": 2025,
      "Ġheld": 2026,
      "ularly": 2027,
      "ĠX": 2028,
      "Ġyour": 2029,
      "ORM": 2030,
      "Ġbir": 2031,
      "Ġwood": 2032,
      "VIEW": 2033,
      "gr": 2034,
      "Ġhistory": 2035,
      "rown": 2036,
      "ĠThen": 2037,
      "ering": 2038,
      "ALS": 2039,
      "ledge": 2040,
      "Ġappear": 2041,
      "ysis": 2042,
      "atic": 2043,
      "Ġsix": 2044,
      "Ġshort": 2045,
      "ĠBe": 2046,
      "ĠVol": 2047,
      "oot": 2048,
      "ining": 2049,
      "Ġcre": 2050,
      "Ġ//": 2051,
      "Ġ24": 2052,
      "Ġneigh": 2053,
      "Ġsou": 2054,
      "ĠThus": 2055,
      "Ġcourse": 2056,
      "iation": 2057,
      "xt": 2058,
      "rist": 2059,
      "Ġcentury": 2060,
      "Ġfire": 2061,
      "Ġten": 2062,
      "oint": 2063,
      "Ġsepar": 2064,
      "mbol": 2065,
      "ane": 2066,
      "Ġsong": 2067,
      "Ġconsidered": 2068,
      "Ġcut": 2069,
      "ĠQ": 2070,
      "Ġca": 2071,
      "ĠSome": 2072,
      "Ġtot": 2073,
      "RES": 2074,
      "ĠNav": 2075,
      "Ġrelative": 2076,
      "Ġeat": 2077,
      "used": 2078,
      "ature": 2079,
      "Ġdone": 2080,
      "Ġtem": 2081,
      "ĠPro": 2082,
      "539": 2083,
      "Ġemploy": 2084,
      "itive": 2085,
      "NS": 2086,
      "ĠETHNO": 2087,
      "Ġz": 2088,
      "apter": 2089,
      "ailable": 2090,
      "ulture": 2091,
      "chn": 2092,
      "Ġlaw": 2093,
      "ese": 2094,
      "63": 2095,
      "Ġhistor": 2096,
      "Ġclaim": 2097,
      "Ġstatus": 2098,
      "Ġmale": 2099,
      "erty": 2100,
      "Ġattempt": 2101,
      "UM": 2102,
      "Ġlatter": 2103,
      "Ġcamp": 2104,
      "Ġcannot": 2105,
      "ison": 2106,
      "Ġfive": 2107,
      "ources": 2108,
      "Ġhar": 2109,
      "Ġdevelopment": 2110,
      "Ġsuff": 2111,
      "Ġareas": 2112,
      "go": 2113,
      "Ġ796": 2114,
      "arily": 2115,
      "II": 2116,
      "Ġaddition": 2117,
      "Ġorganization": 2118,
      "Ġprot": 2119,
      "duced": 2120,
      "olution": 2121,
      "Ġdoc": 2122,
      "ĠPU": 2123,
      "iddle": 2124,
      "Ġsettle": 2125,
      "58": 2126,
      "ready": 2127,
      "ountain": 2128,
      "Ġdisp": 2129,
      "Ġmeet": 2130,
      "01": 2131,
      "VEL": 2132,
      "Ġonce": 2133,
      "OOD": 2134,
      "ured": 2135,
      "ĠPROPERTY": 2136,
      "ULATION": 2137,
      "ĠMARRIAGE": 2138,
      "ama": 2139,
      "sequ": 2140,
      "rel": 2141,
      "Ġfurther": 2142,
      "Ġprobably": 2143,
      "Ġmarried": 2144,
      "ĠAll": 2145,
      "Ġred": 2146,
      "ries": 2147,
      "aid": 2148,
      "ĠCOMMUNITY": 2149,
      "ortun": 2150,
      "TIFICATION": 2151,
      "Ġancest": 2152,
      "Ġreason": 2153,
      "Ġquestion": 2154,
      "ha": 2155,
      "RUC": 2156,
      "Ġthings": 2157,
      "Ġdepend": 2158,
      "na": 2159,
      "clus": 2160,
      "Ġeld": 2161,
      "omen": 2162,
      "Ġmention": 2163,
      "Ġmethod": 2164,
      "TURE": 2165,
      "Ġenc": 2166,
      "ĠOr": 2167,
      "FE": 2168,
      "Ġalready": 2169,
      "nces": 2170,
      "Ġceremony": 2171,
      "ement": 2172,
      "ROUP": 2173,
      "Ġagric": 2174,
      "Ġtype": 2175,
      "Ġformer": 2176,
      "Ġbre": 2177,
      "Ġoutside": 2178,
      "erence": 2179,
      "Ġmoney": 2180,
      "68": 2181,
      "Ġsla": 2182,
      "Ġkeep": 2183,
      "ĠPe": 2184,
      "Ġexpect": 2185,
      "Ġsymbol": 2186,
      "Ġfeel": 2187,
      "mar": 2188,
      "Ġpurp": 2189,
      "ule": 2190,
      "iron": 2191,
      "ime": 2192,
      "ps": 2193,
      "Ġinterp": 2194,
      "ieties": 2195,
      "eral": 2196,
      "Ġable": 2197,
      "ĠLIFE": 2198,
      "Ġsl": 2199,
      "Ġeduc": 2200,
      "Ġbehavior": 2201,
      "ĠCHI": 2202,
      "over": 2203,
      "Ġnorth": 2204,
      "ĠAfter": 2205,
      "ĠHowever": 2206,
      "Ġhalf": 2207,
      "IG": 2208,
      "ination": 2209,
      "55": 2210,
      "ively": 2211,
      "uck": 2212,
      "ĠSouth": 2213,
      "itud": 2214,
      "Ġaccording": 2215,
      "ua": 2216,
      "ĠHist": 2217,
      "Ġopen": 2218,
      "Ġbro": 2219,
      "ĠCon": 2220,
      "Ġlabor": 2221,
      "Ġgod": 2222,
      "UAL": 2223,
      "ma": 2224,
      "ĠTr": 2225,
      "ĠÃ": 2226,
      "Ġdistin": 2227,
      "Ġunderstand": 2228,
      "Ġinformation": 2229,
      "Ġanimals": 2230,
      "nect": 2231,
      "Ġbegin": 2232,
      "Ġprof": 2233,
      "omes": 2234,
      "YS": 2235,
      "ached": 2236,
      "Ġsuper": 2237,
      "lan": 2238,
      "Ġrecogn": 2239,
      "Ġtherefore": 2240,
      "Ġrecord": 2241,
      "Ġder": 2242,
      ",\"": 2243,
      "Ġsent": 2244,
      "Ġisland": 2245,
      "Ġaccept": 2246,
      "Ġobtain": 2247,
      "Ġitself": 2248,
      "Ġpost": 2249,
      "ya": 2250,
      "iness": 2251,
      "ĠLAB": 2252,
      "ole": 2253,
      "ANCE": 2254,
      "ĠEnglish": 2255,
      "ĠLABOR": 2256,
      "Ġstructure": 2257,
      "Ġhard": 2258,
      "Ġdead": 2259,
      "law": 2260,
      "ification": 2261,
      "Ġallow": 2262,
      "enth": 2263,
      "Ã³": 2264,
      "ron": 2265,
      "ĠCar": 2266,
      "Ġdev": 2267,
      "ARE": 2268,
      "af": 2269,
      "Ġche": 2270,
      ");": 2271,
      "SES": 2272,
      "ots": 2273,
      ".\"": 2274,
      "ĠHis": 2275,
      "aring": 2276,
      "Ġgenerally": 2277,
      "ring": 2278,
      "Ġregion": 2279,
      "aries": 2280,
      "Ġbelong": 2281,
      "ĠDIV": 2282,
      "ĠPh": 2283,
      "ctions": 2284,
      "Ġsouth": 2285,
      "Ġdescribed": 2286,
      "Ġthought": 2287,
      "Ġmarket": 2288,
      "Ġanalysis": 2289,
      "Ġhapp": 2290,
      "Ġentire": 2291,
      "EARCH": 2292,
      "ĠRESEARCH": 2293,
      "42": 2294,
      "LE": 2295,
      "Ġquite": 2296,
      "Ġwhether": 2297,
      "Ġbur": 2298,
      "ĠCal": 2299,
      "for": 2300,
      "EMENT": 2301,
      "Ġshall": 2302,
      "Ġmedic": 2303,
      "ches": 2304,
      "Ġnature": 2305,
      "iously": 2306,
      "Ġbuild": 2307,
      "Ġrelatives": 2308,
      "Ġtribes": 2309,
      "69": 2310,
      "Ġgrand": 2311,
      "cil": 2312,
      "work": 2313,
      "Ġspeak": 2314,
      "ĠChrist": 2315,
      "ene": 2316,
      "Ġmag": 2317,
      "minist": 2318,
      "Ġdel": 2319,
      "ÂłÂłÂłÂłÂłÂłÂłÂł": 2320,
      "Ġtechn": 2321,
      "see": 2322,
      "medi": 2323,
      "Ġnext": 2324,
      "Ġofficial": 2325,
      "Ġmaking": 2326,
      "Ġthink": 2327,
      "ival": 2328,
      "Ġdeal": 2329,
      "Ġword": 2330,
      "Ġrespons": 2331,
      "Ġpossess": 2332,
      "ument": 2333,
      "Ġwords": 2334,
      "mitt": 2335,
      "IM": 2336,
      "It": 2337,
      "Ġabs": 2338,
      "Ġdetail": 2339,
      "ARA": 2340,
      "Ġpie": 2341,
      "ĠMAG": 2342,
      "Ġvisit": 2343,
      "ĠNorth": 2344,
      "Ġtend": 2345,
      "Ġtell": 2346,
      "50": 2347,
      "thing": 2348,
      "ĠSOCIAL": 2349,
      "Ġgave": 2350,
      "Ġstart": 2351,
      "Ġcateg": 2352,
      "ERSON": 2353,
      "ann": 2354,
      "Ġaccom": 2355,
      "Ġintro": 2356,
      "Ġconnect": 2357,
      "oke": 2358,
      "Ġlow": 2359,
      "Ġpersons": 2360,
      "Ġfall": 2361,
      "ards": 2362,
      "Ġleav": 2363,
      "ored": 2364,
      "Ġbegan": 2365,
      "Ġpersonal": 2366,
      "Ġsense": 2367,
      "ari": 2368,
      "ĠMUS": 2369,
      "Ġevidence": 2370,
      "rif": 2371,
      "ĠOB": 2372,
      "Ġknowledge": 2373,
      "Ġnative": 2374,
      "ape": 2375,
      "umb": 2376,
      "aper": 2377,
      "by": 2378,
      "Ġmodern": 2379,
      "ĠPERSON": 2380,
      "Ġrun": 2381,
      "ĠTRANS": 2382,
      "sk": 2383,
      "Ġparticip": 2384,
      "Ġfull": 2385,
      "TIQU": 2386,
      "Ġperhaps": 2387,
      "ODS": 2388,
      "OV": 2389,
      "ĠPub": 2390,
      "ohn": 2391,
      "Ġess": 2392,
      "AGES": 2393,
      "Ġmas": 2394,
      "):": 2395,
      "ribution": 2396,
      "Ġinit": 2397,
      "Ġbest": 2398,
      "Ġhouses": 2399,
      "Ġarg": 2400,
      "rs": 2401,
      "Ġbring": 2402,
      "Ġcontain": 2403,
      "Ġasked": 2404,
      "enty": 2405,
      "Ġur": 2406,
      "Ġplaced": 2407,
      "Ġrole": 2408,
      "que": 2409,
      "oub": 2410,
      "Ġexpla": 2411,
      "Ġpain": 2412,
      "Ġarri": 2413,
      "ĠAd": 2414,
      "ests": 2415,
      "pper": 2416,
      "Ġdesign": 2417,
      "LIG": 2418,
      "Ġactivities": 2419,
      "Ġimm": 2420,
      "ala": 2421,
      "lied": 2422,
      "DE": 2423,
      "oles": 2424,
      "ĠRELIG": 2425,
      "Ġkinship": 2426,
      "ii": 2427,
      "Ġ27": 2428,
      "Ġblack": 2429,
      "ĠSee": 2430,
      "ILY": 2431,
      "Ġnames": 2432,
      "ĠRes": 2433,
      "overed": 2434,
      "ites": 2435,
      "Ġ29": 2436,
      "att": 2437,
      "OLI": 2438,
      "Ġcrit": 2439,
      "Ġleaders": 2440,
      "Ġyet": 2441,
      "Ġdaughter": 2442,
      "Ġinstit": 2443,
      "Ġgoing": 2444,
      "ands": 2445,
      "Ġtreat": 2446,
      "Ġrefer": 2447,
      "Ġwrit": 2448,
      "Ġlet": 2449,
      "Ġforms": 2450,
      "Ġdance": 2451,
      "Ġhig": 2452,
      "Ġsingle": 2453,
      "ising": 2454,
      "ilt": 2455,
      "Ġresearch": 2456,
      "els": 2457,
      "Ġparticularly": 2458,
      "Ġver": 2459,
      "Ġindividuals": 2460,
      "Ġnecessary": 2461,
      "ait": 2462,
      "Ġproperty": 2463,
      "ĠORGANIZATION": 2464,
      "ĠSc": 2465,
      "ĠCULTURAL": 2466,
      "ĠFAM": 2467,
      "du": 2468,
      "Ġbased": 2469,
      "ĠPRES": 2470,
      "Ġcross": 2471,
      "Ġclear": 2472,
      "Ġcoun": 2473,
      "Ġrul": 2474,
      "val": 2475,
      "ĠPRI": 2476,
      "Ġcomplete": 2477,
      "ĠSUP": 2478,
      "inter": 2479,
      "ĠSOCIO": 2480,
      "ĠSo": 2481,
      "Ġcompar": 2482,
      "Ġ$": 2483,
      "ĠAG": 2484,
      "Ġann": 2485,
      "ĠTRE": 2486,
      "ATIONAL": 2487,
      "Ġenough": 2488,
      "ĠStates": 2489,
      "ĠUnited": 2490,
      "Ġolder": 2491,
      "ĠAb": 2492,
      "Ġliter": 2493,
      "hood": 2494,
      "arr": 2495,
      "com": 2496,
      "Ġbetter": 2497,
      "CULTURAL": 2498,
      "ĠLa": 2499,
      "EH": 2500,
      "ĠSPI": 2501,
      "PLY": 2502,
      "ĠWith": 2503,
      "ĠSUPPLY": 2504,
      "177": 2505,
      "epend": 2506,
      "Ġrice": 2507,
      "Ġsaw": 2508,
      "ched": 2509,
      "ique": 2510,
      "Ġking": 2511,
      "Ġ189": 2512,
      "Ġ28": 2513,
      "ĠGu": 2514,
      "Ġwit": 2515,
      "Ġtop": 2516,
      "Ġcarried": 2517,
      "oll": 2518,
      "Ġlight": 2519,
      "ery": 2520,
      "59": 2521,
      "where": 2522,
      "Ġpercent": 2523,
      "Ġsister": 2524,
      "sych": 2525,
      "ruct": 2526,
      "Ġsw": 2527,
      "ĠPUBLI": 2528,
      "ament": 2529,
      "Ġbride": 2530,
      "Ġgirls": 2531,
      "ĠGODS": 2532,
      "ĠSPIRI": 2533,
      "Ġphys": 2534,
      "stant": 2535,
      "ĠSPIRITS": 2536,
      "ENDER": 2537,
      "ĠGENDER": 2538,
      "ĠCRI": 2539,
      "ĠMay": 2540,
      "Ġmaintain": 2541,
      "ĠAlthough": 2542,
      "Ġfemale": 2543,
      "any": 2544,
      "ĠCo": 2545,
      "Ġoper": 2546,
      "Ġce": 2547,
      "br": 2548,
      "Ġaspect": 2549,
      "//": 2550,
      "Ġfac": 2551,
      "Ġproblem": 2552,
      "Ġtrade": 2553,
      "ril": 2554,
      "Ġchiefs": 2555,
      "Ġlearn": 2556,
      "Ã¤": 2557,
      "Ġdi": 2558,
      "NDS": 2559,
      "Ġriver": 2560,
      "ĠSTRUC": 2561,
      "ĠKIN": 2562,
      "Ġsituation": 2563,
      "Ġsat": 2564,
      "Ġcarry": 2565,
      "uit": 2566,
      "oo": 2567,
      "lier": 2568,
      "Ġvalue": 2569,
      "ago": 2570,
      "Ġrelated": 2571,
      "Ġimportance": 2572,
      "Ã¨": 2573,
      "Ġcrop": 2574,
      "Ġmatter": 2575,
      "Ġhands": 2576,
      "Ġdescript": 2577,
      "Ġ30": 2578,
      "Ġcorn": 2579,
      "oes": 2580,
      "ography": 2581,
      "ĠGe": 2582,
      "ship": 2583,
      "reg": 2584,
      "Ġadminist": 2585,
      "Ġbelief": 2586,
      "Ġstri": 2587,
      "wo": 2588,
      "ĠAg": 2589,
      "Ġcultiv": 2590,
      "Ġelse": 2591,
      "ĠSan": 2592,
      "Ġcattle": 2593,
      "51": 2594,
      "Ġgreater": 2595,
      "Ġcloth": 2596,
      "ologists": 2597,
      "imate": 2598,
      "Ġartic": 2599,
      "pped": 2600,
      "ivil": 2601,
      "Ġdom": 2602,
      "Ġblood": 2603,
      "yn": 2604,
      "Ġcontact": 2605,
      "king": 2606,
      "Ġ63": 2607,
      "Ġmeaning": 2608,
      "Ġtribe": 2609,
      "Ġdeterm": 2610,
      "rent": 2611,
      "Ġeight": 2612,
      "ĠREVIEW": 2613,
      "Ġdeg": 2614,
      "Ġconstruct": 2615,
      "ĠREVIEWS": 2616,
      "Ġacqu": 2617,
      "Ġexch": 2618,
      "Ġpractice": 2619,
      "Ġlower": 2620,
      "Ġoccasion": 2621,
      "ĠBy": 2622,
      "ressed": 2623,
      "ĠRiver": 2624,
      "erous": 2625,
      "ĠSpan": 2626,
      "ĠEx": 2627,
      "INATION": 2628,
      "Ġprotect": 2629,
      "ox": 2630,
      "ĠPUBLIC": 2631,
      "71": 2632,
      "ream": 2633,
      "ALITY": 2634,
      "Ġve": 2635,
      "cle": 2636,
      "cend": 2637,
      "Ġsel": 2638,
      "Ġcentral": 2639,
      "ĠCRITIQU": 2640,
      "ĠCRITIQUES": 2641,
      "ability": 2642,
      "Ġmakes": 2643,
      "ĠSOCIOCULTURAL": 2644,
      "ĠTRENDS": 2645,
      "Ġer": 2646,
      "Ġproblems": 2647,
      "ondon": 2648,
      "Ġlack": 2649,
      "Ġspirits": 2650,
      "Ġkilled": 2651,
      "Ġarr": 2652,
      "der": 2653,
      "airs": 2654,
      "ĠCent": 2655,
      "Ġlived": 2656,
      "ĠCl": 2657,
      "Ġinfluence": 2658,
      "lected": 2659,
      "ye": 2660,
      "Ġlist": 2661,
      "Ġut": 2662,
      "66": 2663,
      "Ġconditions": 2664,
      "Ã¢": 2665,
      "ott": 2666,
      "Ġfunction": 2667,
      "Ġ12": 2668,
      "FI": 2669,
      "Ġpriv": 2670,
      "ables": 2671,
      "Ġmigr": 2672,
      "oral": 2673,
      "ologist": 2674,
      "ĠIDEN": 2675,
      "Ġparts": 2676,
      "Ġboys": 2677,
      "eal": 2678,
      "Ġsomething": 2679,
      "Ġsoon": 2680,
      "inary": 2681,
      "fer": 2682,
      "Ġdon": 2683,
      "Ġbar": 2684,
      "phas": 2685,
      "Ġanimal": 2686,
      "Ġda": 2687,
      "apan": 2688,
      "Ġiss": 2689,
      "ographic": 2690,
      "ETT": 2691,
      "Ġtree": 2692,
      "elt": 2693,
      "ibility": 2694,
      "Ġsignificant": 2695,
      "Ġtrue": 2696,
      "Ġfeet": 2697,
      "Ġterrit": 2698,
      "Ã¼": 2699,
      "Ġthird": 2700,
      "Ġetc": 2701,
      "ĠJohn": 2702,
      "Ġ190": 2703,
      "Ġmountain": 2704,
      "ĠRep": 2705,
      "aman": 2706,
      "ĠROL": 2707,
      "ĠStud": 2708,
      "Ġmission": 2709,
      "Ġearth": 2710,
      "orts": 2711,
      "Ġheav": 2712,
      "ĠCH": 2713,
      "Ġsays": 2714,
      "ĠGo": 2715,
      "ĠMUSIC": 2716,
      "ĠItal": 2717,
      "Ġauthority": 2718,
      "Ġ648": 2719,
      "ource": 2720,
      "Ġconsist": 2721,
      "ĠComm": 2722,
      "Ġnational": 2723,
      "Ġneg": 2724,
      "de": 2725,
      "ĠThat": 2726,
      "une": 2727,
      "Ġfail": 2728,
      "YERS": 2729,
      "ĠSACRI": 2730,
      "ises": 2731,
      "FICES": 2732,
      "ĠPRAYERS": 2733,
      "ĠSACRIFICES": 2734,
      "ĠPer": 2735,
      "Ġfront": 2736,
      "Ġfav": 2737,
      "ences": 2738,
      "asing": 2739,
      "âĢĻ,": 2740,
      "ply": 2741,
      "ortion": 2742,
      "Ġwide": 2743,
      "lig": 2744,
      "Ġinvest": 2745,
      "Ġtakes": 2746,
      "ĠHOUS": 2747,
      "Ġimmedi": 2748,
      "Ġgot": 2749,
      "chae": 2750,
      "Ġproduction": 2751,
      "Ġamount": 2752,
      "Ġmeas": 2753,
      "52": 2754,
      "ĠAfrican": 2755,
      "icient": 2756,
      "Ġapparent": 2757,
      "Ġsal": 2758,
      "ours": 2759,
      "SY": 2760,
      "Ġsle": 2761,
      "Ġhunting": 2762,
      "Ġhor": 2763,
      "hab": 2764,
      "Ġcomplex": 2765,
      "30": 2766,
      "osition": 2767,
      "ush": 2768,
      "Ġavailable": 2769,
      "ets": 2770,
      "SYCH": 2771,
      "like": 2772,
      "Ġsun": 2773,
      "Ġmiddle": 2774,
      "Ġrecent": 2775,
      "fig": 2776,
      "Ġsn": 2777,
      "Ġwives": 2778,
      "Ġfree": 2779,
      "Ġlarger": 2780,
      "Ġtotal": 2781,
      "Ġstone": 2782,
      "Ġwealth": 2783,
      "sc": 2784,
      "ads": 2785,
      "TIONAL": 2786,
      "DENCE": 2787,
      "oper": 2788,
      "Ġself": 2789,
      "Ġmentioned": 2790,
      "Ġindust": 2791,
      "Ġprovide": 2792,
      "Ġkin": 2793,
      "114": 2794,
      "gress": 2795,
      "Ġ).": 2796,
      "Ġproduct": 2797,
      "Wh": 2798,
      "ĠSociety": 2799,
      "ĠMATERIALS": 2800,
      "Ġlate": 2801,
      "ĠSocial": 2802,
      "Ġchanges": 2803,
      "Ġseason": 2804,
      "orld": 2805,
      "Ġenv": 2806,
      "ĠFUN": 2807,
      "irt": 2808,
      "Ġways": 2809,
      "Ġpray": 2810,
      "Ġcou": 2811,
      "ĠAmerica": 2812,
      "This": 2813,
      "Ġbasis": 2814,
      "Ġcolon": 2815,
      "ĠGod": 2816,
      "Ġrelationships": 2817,
      "Ġmeat": 2818,
      "idge": 2819,
      "ula": 2820,
      "iar": 2821,
      "Ġearlier": 2822,
      "Ġlineage": 2823,
      "Ġnothing": 2824,
      "RED": 2825,
      "Ġappears": 2826,
      "Ġforest": 2827,
      "sw": 2828,
      "ournal": 2829,
      "Ġsocieties": 2830,
      "Ġplaces": 2831,
      "Ġcho": 2832,
      "Ġlonger": 2833,
      "isf": 2834,
      "ATED": 2835,
      "ĠMY": 2836,
      "Ġx": 2837,
      "Ġestablished": 2838,
      "Ġant": 2839,
      "rand": 2840,
      "ls": 2841,
      "Ġparty": 2842,
      "Ġemphas": 2843,
      "Ġden": 2844,
      "Ġmedicine": 2845,
      "Ġchurch": 2846,
      "ĠII": 2847,
      "ills": 2848,
      "raphic": 2849,
      "Ġsett": 2850,
      "bs": 2851,
      "Ġassist": 2852,
      "amed": 2853,
      "ĠMYTH": 2854,
      "utes": 2855,
      "uts": 2856,
      "Ġreceived": 2857,
      "ĠMYTHOLOGY": 2858,
      "Ġcommunities": 2859,
      "ler": 2860,
      "Ġconstit": 2861,
      "60": 2862,
      "useum": 2863,
      "Ġ188": 2864,
      "Ġtoday": 2865,
      "Ġbirth": 2866,
      "Ġchapter": 2867,
      "Ġincluding": 2868,
      "ĠWhile": 2869,
      "fully": 2870,
      "Ġnorm": 2871,
      "Ġethnic": 2872,
      "Ġcast": 2873,
      ".âĢĻ": 2874,
      "Ġstudies": 2875,
      "Ġhistorical": 2876,
      "Ġsize": 2877,
      "ope": 2878,
      "Ġwid": 2879,
      "Ġbound": 2880,
      "enn": 2881,
      "yp": 2882,
      "ĠPAR": 2883,
      "ĠBrit": 2884,
      "Ġprom": 2885,
      "ĠANIM": 2886,
      "Ġprovided": 2887,
      "istics": 2888,
      "Ġsacrif": 2889,
      "Ġcal": 2890,
      "Ġcit": 2891,
      "ĠAp": 2892,
      "ustr": 2893,
      "Ġdiscussion": 2894,
      "Ġpoor": 2895,
      "67": 2896,
      "vey": 2897,
      "rench": 2898,
      "itle": 2899,
      "Ġtravel": 2900,
      "Ġkept": 2901,
      "Ġrights": 2902,
      "Ġfrequently": 2903,
      "Ġma": 2904,
      "ĠCalif": 2905,
      "ĠSch": 2906,
      "ĠMal": 2907,
      "Ġ68": 2908,
      "Ġface": 2909,
      "ĠIsland": 2910,
      "Ġdied": 2911,
      "Ġfil": 2912,
      "Ġprep": 2913,
      "Ġ11": 2914,
      "Ġreview": 2915,
      "ĠFAMILY": 2916,
      "ĠEthn": 2917,
      "Ġsol": 2918,
      "Ġadop": 2919,
      "Ġbrothers": 2920,
      "Ġwhy": 2921,
      "Ġceremonial": 2922,
      "THERAP": 2923,
      "ĠSp": 2924,
      "Ġ177": 2925,
      "OLD": 2926,
      "apt": 2927,
      "Ġmer": 2928,
      "ĠMy": 2929,
      "197": 2930,
      "ellow": 2931,
      "Ġsons": 2932,
      "ĠBr": 2933,
      "Ġdifferences": 2934,
      "urs": 2935,
      "ada": 2936,
      "reme": 2937,
      "ĠEuropean": 2938,
      "eds": 2939,
      "eb": 2940,
      "itary": 2941,
      "Ġhouseholds": 2942,
      "Ġinvolved": 2943,
      "oses": 2944,
      "Ġles": 2945,
      "Ġmot": 2946,
      "Ġimmigr": 2947,
      "aut": 2948,
      "LEMENT": 2949,
      "ought": 2950,
      "ĠWestern": 2951,
      "Ġindepend": 2952,
      "Ġexam": 2953,
      "Ġnatural": 2954,
      "Ġcomb": 2955,
      "ium": 2956,
      "ĠSEX": 2957,
      "ĠCan": 2958,
      "Ġcity": 2959,
      "Ġdefin": 2960,
      "ILI": 2961,
      "well": 2962,
      "Ġworking": 2963,
      "ĠLondon": 2964,
      "FARE": 2965,
      "Ġvari": 2966,
      "Ġaffect": 2967,
      "âĢ²": 2968,
      "Ġmonths": 2969,
      "Ġgives": 2970,
      "44": 2971,
      "TIGE": 2972,
      "ĠPRESTIGE": 2973,
      "Ġtypes": 2974,
      "ĠTheir": 2975,
      "ĠTER": 2976,
      "Ġdrink": 2977,
      "Ġaut": 2978,
      "Ġcook": 2979,
      "Ġyounger": 2980,
      "ĠDr": 2981,
      "Ġadult": 2982,
      "Ġir": 2983,
      "lace": 2984,
      "ĠREAL": 2985,
      "Ġmus": 2986,
      "ĠROLE": 2987,
      "Ġ776": 2988,
      "ĠPOLI": 2989,
      "Ġfields": 2990,
      "Ġfif": 2991,
      "Ġcircum": 2992,
      "iding": 2993,
      "uf": 2994,
      "ĠGI": 2995,
      "Ġ782": 2996,
      "Ġdest": 2997,
      "Ġspecific": 2998,
      "ĠJapan": 2999,
      "Ġgl": 3000,
      "Ġones": 3001,
      "Ġassociated": 3002,
      "ĠAnthropology": 3003,
      "Ġ),": 3004,
      "Ġ539": 3005,
      "OS": 3006,
      "ĠFrom": 3007,
      "Ġpeas": 3008,
      "TIVI": 3009,
      "ĠNavaj": 3010,
      "Ġdie": 3011,
      "undred": 3012,
      "ĠACTIVI": 3013,
      "ij": 3014,
      "action": 3015,
      "Ġexperience": 3016,
      "ek": 3017,
      "ĠACTIVITIES": 3018,
      "graphic": 3019,
      "Ġfollowed": 3020,
      "isc": 3021,
      "ĠYou": 3022,
      "gers": 3023,
      "EHOLD": 3024,
      "Ġassum": 3025,
      "oly": 3026,
      "ĠAcc": 3027,
      "ĠHOUSEHOLD": 3028,
      "ISS": 3029,
      "ixed": 3030,
      "oples": 3031,
      "Ġceremonies": 3032,
      "ani": 3033,
      "bit": 3034,
      "ervation": 3035,
      "Ġgif": 3036,
      "Ġbad": 3037,
      "Ãº": 3038,
      "Ġnoted": 3039,
      "Ch": 3040,
      "ĠPa": 3041,
      "Ġreligion": 3042,
      "Ġbow": 3043,
      "hers": 3044,
      "izing": 3045,
      "Ġround": 3046,
      "orning": 3047,
      "rect": 3048,
      "ades": 3049,
      "Ġproper": 3050,
      "Ġtri": 3051,
      "ĠCaliforn": 3052,
      "unt": 3053,
      "ĠSpanish": 3054,
      "acy": 3055,
      "Ġborn": 3056,
      "Ġ60": 3057,
      "ID": 3058,
      "Ġthroughout": 3059,
      "Ġmember": 3060,
      "ĠWest": 3061,
      "Ġdomin": 3062,
      "othes": 3063,
      "Ġlikely": 3064,
      "Ã±": 3065,
      "Ġrain": 3066,
      "ensive": 3067,
      "Ġfeast": 3068,
      "Ġcomes": 3069,
      "ĠFig": 3070,
      "inal": 3071,
      "Ġconflic": 3072,
      "Ġstay": 3073,
      "Ġfut": 3074,
      "Ġpatterns": 3075,
      "ba": 3076,
      "Ġdue": 3077,
      "Ġwat": 3078,
      "Ġdu": 3079,
      "Ġattention": 3080,
      "ĠAra": 3081,
      "Ġeng": 3082,
      "ĠIb": 3083,
      "Ġtheory": 3084,
      "ify": 3085,
      "Ġrare": 3086,
      "ISM": 3087,
      "Ġhundred": 3088,
      "ĠMexico": 3089,
      "Ġpal": 3090,
      "Ġdoub": 3091,
      "ze": 3092,
      "Ġleaves": 3093,
      "ĠFrench": 3094,
      "iol": 3095,
      "ILL": 3096,
      "Ġbuilt": 3097,
      "Ġpurpose": 3098,
      "ator": 3099,
      "Ġtwenty": 3100,
      "Ġ88": 3101,
      "Ġstory": 3102,
      "Ġhigher": 3103,
      "Ġge": 3104,
      "When": 3105,
      "what": 3106,
      "Ġbusiness": 3107,
      "ĠEDUC": 3108,
      "ĠSPEC": 3109,
      "ĠSH": 3110,
      "itude": 3111,
      "Ġagricultural": 3112,
      "EAD": 3113,
      "Ġanthropology": 3114,
      "Ġeducation": 3115,
      "ERAL": 3116,
      "Ġextent": 3117,
      "Ġhair": 3118,
      "Ġcontrast": 3119,
      "itten": 3120,
      "Ġ83": 3121,
      "ĠPRE": 3122,
      "ĠCalifornia": 3123,
      "Ġeast": 3124,
      "Ġwest": 3125,
      "Ġever": 3126,
      "PARA": 3127,
      "Ġsimply": 3128,
      "uff": 3129,
      "atural": 3130,
      "TIONS": 3131,
      "Ġoblig": 3132,
      "my": 3133,
      "Ġpred": 3134,
      "Ġneighb": 3135,
      "yond": 3136,
      "ui": 3137,
      "An": 3138,
      "ashing": 3139,
      "aged": 3140,
      "175": 3141,
      "Ġinterpret": 3142,
      "Ġsection": 3143,
      "Ġjo": 3144,
      "Ġbig": 3145,
      "ĠAD": 3146,
      "ils": 3147,
      "Ġpoints": 3148,
      "Ġpun": 3149,
      "ev": 3150,
      "Ġgoes": 3151,
      "den": 3152,
      "Ġconsiderable": 3153,
      "47": 3154,
      "Ġheard": 3155,
      "Ġpsych": 3156,
      "mitted": 3157,
      "ĠHar": 3158,
      "Ġcontinued": 3159,
      "AND": 3160,
      "Ġmere": 3161,
      "Ġpresented": 3162,
      "ĠINF": 3163,
      "Ġleave": 3164,
      "ĠRuss": 3165,
      "Ġalone": 3166,
      "vest": 3167,
      "ĠPAT": 3168,
      "ois": 3169,
      "RATIFICATION": 3170,
      "iam": 3171,
      "ĠEM": 3172,
      "hib": 3173,
      "Ġfigures": 3174,
      "Ġrev": 3175,
      "Ġforce": 3176,
      "ĠAfrica": 3177,
      "Ġpolic": 3178,
      "ĠSETT": 3179,
      "porary": 3180,
      "LD": 3181,
      "Ġmanner": 3182,
      "Ġreturned": 3183,
      "Ġprec": 3184,
      "Ġevent": 3185,
      "ĠPar": 3186,
      "Ġdegree": 3187,
      "Ġque": 3188,
      "ributed": 3189,
      "Ġsettlement": 3190,
      "IOUS": 3191,
      "Ġaver": 3192,
      "ĠChristian": 3193,
      "Ġhon": 3194,
      "ĠPATTERN": 3195,
      "oid": 3196,
      "ISSION": 3197,
      "Ġdri": 3198,
      "ĠSince": 3199,
      "ĠPATTERNS": 3200,
      "Ġcoast": 3201,
      "ĠSETTLEMENT": 3202,
      "Ġcapital": 3203,
      "Ġsongs": 3204,
      "ĠRELIGIOUS": 3205,
      "Ġrule": 3206,
      "Ġoriginal": 3207,
      "ĠSTRUCTURE": 3208,
      "ĠPLA": 3209,
      "Ġlay": 3210,
      "ĠPal": 3211,
      "isions": 3212,
      "estic": 3213,
      "za": 3214,
      "JEC": 3215,
      "Ġbelow": 3216,
      "cul": 3217,
      "ĠAss": 3218,
      "40": 3219,
      "Ġconcerned": 3220,
      "Ġansw": 3221,
      "Ġfa": 3222,
      "Ġmorning": 3223,
      "Ġfriends": 3224,
      "LING": 3225,
      "Ġjud": 3226,
      "ĠMong": 3227,
      "illed": 3228,
      "Ġtribal": 3229,
      "ĠOBJEC": 3230,
      "ĠâĢ¦": 3231,
      "ĠOBJECTS": 3232,
      "ires": 3233,
      "ĠSACRED": 3234,
      "Ġbeginning": 3235,
      "ĠHistory": 3236,
      "ĠPLACES": 3237,
      "Ġsqu": 3238,
      "Ġtransl": 3239,
      "mp": 3240,
      "COM": 3241,
      "Ġbelieve": 3242,
      "Ġleng": 3243,
      "Ġexc": 3244,
      "ECU": 3245,
      "erson": 3246,
      "Ġmind": 3247,
      "ption": 3248,
      "ĠEXECU": 3249,
      "ĠQu": 3250,
      "het": 3251,
      "Ġbi": 3252,
      "Ġcivil": 3253,
      "ĠEVI": 3254,
      "ask": 3255,
      "PARATIVE": 3256,
      "ĠMa": 3257,
      "ĠCOMPARATIVE": 3258,
      "ĠEVIDENCE": 3259,
      "Ġtalk": 3260,
      "46": 3261,
      "Ġpeoples": 3262,
      "Ġdemon": 3263,
      "ironment": 3264,
      "Ġpublished": 3265,
      "Ġshown": 3266,
      "Ġpaid": 3267,
      "uous": 3268,
      "ĠPl": 3269,
      "ĠEven": 3270,
      "west": 3271,
      "ken": 3272,
      "ĠCL": 3273,
      "GROUP": 3274,
      "ĠMAGIC": 3275,
      "eenth": 3276,
      "ĠJournal": 3277,
      "ĠBas": 3278,
      "Ġdivid": 3279,
      "rief": 3280,
      "Ġclearly": 3281,
      "Ġ69": 3282,
      "ISTS": 3283,
      "hist": 3284,
      "oon": 3285,
      "Ġestablish": 3286,
      "ĠBritish": 3287,
      "Ġfuture": 3288,
      "Ġmyth": 3289,
      "resp": 3290,
      "Ġremains": 3291,
      "Ġapproach": 3292,
      "Ã¶": 3293,
      "ĠTHERAP": 3294,
      "ĠTHERAPY": 3295,
      "There": 3296,
      "utions": 3297,
      "ĠChic": 3298,
      "erve": 3299,
      "alo": 3300,
      "Ġdistinct": 3301,
      "chie": 3302,
      "Ġsold": 3303,
      "och": 3304,
      "ternal": 3305,
      "tery": 3306,
      "ĠNORM": 3307,
      "Ġconv": 3308,
      "Ġcontext": 3309,
      "ocal": 3310,
      "INE": 3311,
      "ETE": 3312,
      "Ġinhab": 3313,
      "ĠSuch": 3314,
      "Ġdeep": 3315,
      "Ġdry": 3316,
      "Ġâĸ¡": 3317,
      "lim": 3318,
      "mber": 3319,
      "Ġcost": 3320,
      "ped": 3321,
      "asons": 3322,
      "Ġseries": 3323,
      "tr": 3324,
      "Ġexchange": 3325,
      "Ġrural": 3326,
      "Ġaccompan": 3327,
      "Ġillustr": 3328,
      "Ġ0": 3329,
      "Ġaction": 3330,
      "Ġfear": 3331,
      "duce": 3332,
      "As": 3333,
      "ĠWar": 3334,
      "ĠMuseum": 3335,
      "ĠDIVINATION": 3336,
      "Ġdog": 3337,
      "Ġled": 3338,
      "VELATION": 3339,
      "ĠREVELATION": 3340,
      "Ġaw": 3341,
      "Ġenter": 3342,
      "Ġvers": 3343,
      "ĠRel": 3344,
      "Ġdistrict": 3345,
      "una": 3346,
      "198": 3347,
      "Ġpress": 3348,
      "?âĢĿ": 3349,
      "oura": 3350,
      "ĠÂ": 3351,
      "ĠWill": 3352,
      "AST": 3353,
      "Ġmarry": 3354,
      "Ġopportun": 3355,
      "Ġreported": 3356,
      "Ġbab": 3357,
      "Ġlimited": 3358,
      "ĠOther": 3359,
      "Ġagre": 3360,
      "ih": 3361,
      "ĠTO": 3362,
      "ĠTy": 3363,
      "Ġshare": 3364,
      "ators": 3365,
      "ĠEd": 3366,
      "ols": 3367,
      "Ġsib": 3368,
      "Ġeconomy": 3369,
      "ging": 3370,
      "Ġwinter": 3371,
      "Ġexpected": 3372,
      "oted": 3373,
      "Ġgeneration": 3374,
      "aught": 3375,
      "Ġbecomes": 3376,
      "Ġtext": 3377,
      "inn": 3378,
      "___": 3379,
      "159": 3380,
      "ĠDE": 3381,
      "ĠSPECIAL": 3382,
      "Ġincluded": 3383,
      "pid": 3384,
      "Ġfishing": 3385,
      "RATION": 3386,
      "âĢ¦": 3387,
      "iated": 3388,
      "ĠEXECUTIVE": 3389,
      "Ġproject": 3390,
      "Ġbasket": 3391,
      "Ġsexual": 3392,
      "Ġstra": 3393,
      "apers": 3394,
      "ĠPSYCH": 3395,
      "Ġpaper": 3396,
      "Ġworkers": 3397,
      "ĠSHAM": 3398,
      "Ġ47": 3399,
      "ĠWorld": 3400,
      "Ġsea": 3401,
      "Ġurban": 3402,
      "Ġdanc": 3403,
      "ĠHer": 3404,
      "ĠPSYCHO": 3405,
      "Ġnet": 3406,
      "HY": 3407,
      "Ġconsequ": 3408,
      "ĠSHAMANS": 3409,
      "Ġcause": 3410,
      "ĠPSYCHOTHERAP": 3411,
      "Ġinformants": 3412,
      "ĠPSYCHOTHERAPISTS": 3413,
      "Ġoffer": 3414,
      "Ġtrees": 3415,
      "Ġcompet": 3416,
      "Ġ48": 3417,
      "Ġacross": 3418,
      "Ġhost": 3419,
      "41": 3420,
      "Ġemb": 3421,
      "Ġessential": 3422,
      "Ġinstance": 3423,
      "Ġshows": 3424,
      "Ġsacred": 3425,
      "leg": 3426,
      "Ġremained": 3427,
      "rom": 3428,
      "Ġquar": 3429,
      "ĠPOLITICAL": 3430,
      "ĠJu": 3431,
      "ERY": 3432,
      "atory": 3433,
      "eth": 3434,
      "ems": 3435,
      "kin": 3436,
      "SE": 3437,
      "ĠREC": 3438,
      "ĠTe": 3439,
      "Ġful": 3440,
      "ona": 3441,
      "Ġben": 3442,
      "ĠMany": 3443,
      "ĠKh": 3444,
      "Ġpiece": 3445,
      "Ġdang": 3446,
      "Ġsomewhat": 3447,
      "Ġdescend": 3448,
      "uses": 3449,
      "ĠMore": 3450,
      "yes": 3451,
      "ĠEl": 3452,
      "Ġtaking": 3453,
      "ĠDuring": 3454,
      "Ġswe": 3455,
      "Ġlives": 3456,
      "ĠMe": 3457,
      "ĠState": 3458,
      "anch": 3459,
      "Ġsource": 3460,
      "Ġgard": 3461,
      "ĠSTRATIFICATION": 3462,
      "78": 3463,
      "Ġsystems": 3464,
      "ĠSm": 3465,
      "riline": 3466,
      "gy": 3467,
      "Ġseparate": 3468,
      "Ġrelatively": 3469,
      "Ġfund": 3470,
      "ĠPRAC": 3471,
      "Ġphysical": 3472,
      "Ġroom": 3473,
      "ĠPol": 3474,
      "astern": 3475,
      "ember": 3476,
      "Ġgoods": 3477,
      "EF": 3478,
      "FEN": 3479,
      "edd": 3480,
      "Ġclans": 3481,
      "ony": 3482,
      "lor": 3483,
      "Ġalt": 3484,
      "Ġ621": 3485,
      "ĠOFFEN": 3486,
      "ĠOFFENSES": 3487,
      "bo": 3488,
      "Ġancient": 3489,
      "Ġdeveloped": 3490,
      "ĠMIG": 3491,
      "cript": 3492,
      "ĠGEN": 3493,
      "ĠANAL": 3494,
      "room": 3495,
      "Ġfactors": 3496,
      "Ġsleep": 3497,
      "lection": 3498,
      "Ġbasic": 3499,
      "ĠNe": 3500,
      "imil": 3501,
      "ĠWhat": 3502,
      "Ġregarded": 3503,
      "Ġgame": 3504,
      "ĠCHILD": 3505,
      "Ġthing": 3506,
      "Ġtrou": 3507,
      "ĠANALYS": 3508,
      "ĠANALYSIS": 3509,
      "ĠMIGRATION": 3510,
      "........": 3511,
      "Ġ=": 3512,
      "ache": 3513,
      "ĠMr": 3514,
      "Ġreve": 3515,
      "Ġvillagers": 3516,
      "Ġvolume": 3517,
      "ULTS": 3518,
      "79": 3519,
      "Ġformal": 3520,
      "anda": 3521,
      "teen": 3522,
      "ained": 3523,
      "Ġinher": 3524,
      "ĠRESULTS": 3525,
      "atures": 3526,
      "ĠBlack": 3527,
      "Ġbeyond": 3528,
      "Ġneighbor": 3529,
      "lies": 3530,
      "Ġple": 3531,
      "Ġidea": 3532,
      "Ġsil": 3533,
      "Ġsurv": 3534,
      "tical": 3535,
      "Ġ--": 3536,
      "Ġfoot": 3537,
      "Ġbehind": 3538,
      "Ġextreme": 3539,
      "ashington": 3540,
      "ĠMost": 3541,
      "lam": 3542,
      "Ġlost": 3543,
      "Ġdistingu": 3544,
      "Ġresources": 3545,
      "Ġwall": 3546,
      "nder": 3547,
      "Ġinteresting": 3548,
      "Ġfight": 3549,
      "Ġ50": 3550,
      "Ġflow": 3551,
      "Ġjob": 3552,
      "Ġevents": 3553,
      "artment": 3554,
      "Ġvalues": 3555,
      "Ġachie": 3556,
      "ĠNot": 3557,
      "Ġseven": 3558,
      "ĠBar": 3559,
      "Ġ40": 3560,
      "ĠKore": 3561,
      "ĠARTS": 3562,
      "sp": 3563,
      "Ġrange": 3564,
      "Ġ1970": 3565,
      "ĠNavajo": 3566,
      "reng": 3567,
      "Ġunit": 3568,
      "ĠVal": 3569,
      "ux": 3570,
      "aka": 3571,
      "Ġlands": 3572,
      "Ġobserved": 3573,
      "Ġplan": 3574,
      "Ġfollows": 3575,
      "ta": 3576,
      "Ġaspects": 3577,
      "Ġdistribution": 3578,
      "Ġhealth": 3579,
      "Ġ*": 3580,
      "ORA": 3581,
      "add": 3582,
      "ĠBra": 3583,
      "Ġattend": 3584,
      "oman": 3585,
      "Ġnorthern": 3586,
      "Ġ25": 3587,
      "ĠPRODUC": 3588,
      "Ġlength": 3589,
      "Ġobtained": 3590,
      "Ġtax": 3591,
      "Ġpig": 3592,
      "ening": 3593,
      "Ġactual": 3594,
      "Ġsty": 3595,
      "IP": 3596,
      "Ġcra": 3597,
      "ulations": 3598,
      "Ġanything": 3599,
      "ĠChina": 3600,
      "Ġlingu": 3601,
      "Ġwind": 3602,
      "eness": 3603,
      "ĠTong": 3604,
      "Ġupper": 3605,
      "Ġsummer": 3606,
      "Ġemer": 3607,
      "Ġhom": 3608,
      "Ġsus": 3609,
      "ano": 3610,
      "Ġenvironment": 3611,
      "ilities": 3612,
      "Ġprogr": 3613,
      "ropri": 3614,
      "ca": 3615,
      "ali": 3616,
      "oph": 3617,
      "ica": 3618,
      "Ġgather": 3619,
      "Ġcommunic": 3620,
      "Ġservice": 3621,
      "rig": 3622,
      "Ġsheep": 3623,
      "ĠGENERAL": 3624,
      "Ġwild": 3625,
      "amm": 3626,
      "Ġallowed": 3627,
      "aches": 3628,
      "Ġdise": 3629,
      "Ëĺ": 3630,
      "Ġconduct": 3631,
      "Ġwritten": 3632,
      "Ġmovement": 3633,
      "Ġkinds": 3634,
      "irm": 3635,
      "Ġfoc": 3636,
      "Ġstop": 3637,
      "su": 3638,
      "ĠSy": 3639,
      "âĢĻ.": 3640,
      "ental": 3641,
      "VING": 3642,
      "Ġexplan": 3643,
      "33": 3644,
      "ĠLake": 3645,
      "Ġrequired": 3646,
      "ĠPart": 3647,
      "Ġhighly": 3648,
      "Ġinclude": 3649,
      "Ġviol": 3650,
      "imately": 3651,
      "Ġdoubt": 3652,
      "Ġenem": 3653,
      "Ġworked": 3654,
      "respond": 3655,
      "Ġsubs": 3656,
      "ĠMus": 3657,
      "Ġago": 3658,
      "lev": 3659,
      "Ġsouthern": 3660,
      "Ġdece": 3661,
      "Ġancestors": 3662,
      "Ġcourt": 3663,
      "anced": 3664,
      "ĠAccording": 3665,
      "Ġdescription": 3666,
      "Ġdraw": 3667,
      "Ġsite": 3668,
      "ows": 3669,
      "We": 3670,
      "ipe": 3671,
      "Ġexce": 3672,
      "Ġdemonstr": 3673,
      "ĠHop": 3674,
      "ishes": 3675,
      "Ġincreasing": 3676,
      "Ġmodel": 3677,
      "ĠInstit": 3678,
      "Ġdomestic": 3679,
      "Ġ178": 3680,
      "178": 3681,
      "rew": 3682,
      "cy": 3683,
      "Ġpresence": 3684,
      "ĠWashington": 3685,
      "Ġinvestig": 3686,
      "Ġdeb": 3687,
      "AS": 3688,
      "Ġsources": 3689,
      "uments": 3690,
      "AMES": 3691,
      "ĠWAR": 3692,
      "Ġincome": 3693,
      "Ġaf": 3694,
      "Ġmonth": 3695,
      "Ġ778": 3696,
      "Ġ593": 3697,
      "Ġfelt": 3698,
      "ĠPu": 3699,
      "ĠFI": 3700,
      "Ġobjects": 3701,
      "Ġtest": 3702,
      "Ġelements": 3703,
      "Ġperformed": 3704,
      "ĠNeg": 3705,
      "Ġforeign": 3706,
      "Ġmid": 3707,
      "Ġextended": 3708,
      "DI": 3709,
      "Ġaverage": 3710,
      ".:": 3711,
      "isters": 3712,
      "Ġmis": 3713,
      "Ġcover": 3714,
      "wise": 3715,
      "Ġtab": 3716,
      "Ġpen": 3717,
      "Ġdivided": 3718,
      "Ġminor": 3719,
      "iction": 3720,
      "Ġrepe": 3721,
      "Ġstudents": 3722,
      "ERV": 3723,
      "dom": 3724,
      "UMENTS": 3725,
      "Ġdescent": 3726,
      "app": 3727,
      "gment": 3728,
      "ulated": 3729,
      "Ġsimple": 3730,
      "father": 3731,
      "Ġmagic": 3732,
      "Ġowners": 3733,
      "Ġcenter": 3734,
      "Ġpractices": 3735,
      "45": 3736,
      "ĠMED": 3737,
      "Ġbelieved": 3738,
      "oor": 3739,
      "Ġbear": 3740,
      "uted": 3741,
      "itation": 3742,
      "bed": 3743,
      "osp": 3744,
      "Ġknew": 3745,
      "ĠCLANS": 3746,
      "Ġreference": 3747,
      "Ġlines": 3748,
      "ching": 3749,
      "ĠOf": 3750,
      "Ġgrad": 3751,
      "Ġstreng": 3752,
      "ĠAnn": 3753,
      "Ġpassed": 3754,
      "533": 3755,
      "Ġreally": 3756,
      "Ġresults": 3757,
      "Ġbrief": 3758,
      "Ġadj": 3759,
      "ster": 3760,
      "iving": 3761,
      "Ġcoming": 3762,
      "Ġband": 3763,
      "ores": 3764,
      "Ġpict": 3765,
      "Ġelder": 3766,
      "ĠCulture": 3767,
      "Ġpriest": 3768,
      "SH": 3769,
      "Ġfest": 3770,
      "Ġarrow": 3771,
      "ĠLE": 3772,
      "udd": 3773,
      "Ġpow": 3774,
      "OGRAPHY": 3775,
      "ĠEast": 3776,
      "ĠĠĠĠ": 3777,
      "fe": 3778,
      "Ġdirectly": 3779,
      "ĠHere": 3780,
      "Ġherd": 3781,
      "Ġbroad": 3782,
      "ĠINT": 3783,
      "ILLAGE": 3784,
      "ĠType": 3785,
      "Ġdut": 3786,
      "ĠBook": 3787,
      "Ġdiscussed": 3788,
      "Ġ361": 3789,
      "ueb": 3790,
      "Ġcovered": 3791,
      "set": 3792,
      "uh": 3793,
      "ĠSam": 3794,
      "iting": 3795,
      "gar": 3796,
      "port": 3797,
      "Ġsound": 3798,
      "Ġoffice": 3799,
      "ĠNow": 3800,
      "Ġmoved": 3801,
      "istence": 3802,
      "ĠTur": 3803,
      "Ġmouth": 3804,
      "ĠMon": 3805,
      "Ġskin": 3806,
      "line": 3807,
      "ĠTILLAGE": 3808,
      "Ġsatisf": 3809,
      "Ġfair": 3810,
      "Ġactually": 3811,
      "Ġ592": 3812,
      "Ġdistance": 3813,
      "pite": 3814,
      "EAL": 3815,
      "lt": 3816,
      "Ġstep": 3817,
      "equ": 3818,
      "Ġrites": 3819,
      "ĠCHIEF": 3820,
      "iences": 3821,
      "Ġoffered": 3822,
      "iced": 3823,
      "ĠBUR": 3824,
      "bos": 3825,
      "Ġ773": 3826,
      "ford": 3827,
      "Ġmiles": 3828,
      "RY": 3829,
      "ËĻ": 3830,
      "ĠBer": 3831,
      "Ġidentity": 3832,
      "ki": 3833,
      "ĠGovernment": 3834,
      "Ġincrease": 3835,
      "Ġ787": 3836,
      "ĠEach": 3837,
      "ocks": 3838,
      "awa": 3839,
      "Ãª": 3840,
      "erto": 3841,
      "head": 3842,
      "Ġcrops": 3843,
      "Ġdemand": 3844,
      "ĠGROUP": 3845,
      "ĠWhite": 3846,
      "Ġconsum": 3847,
      "ja": 3848,
      "AD": 3849,
      "inet": 3850,
      "Ġwanted": 3851,
      "Ġleader": 3852,
      "Ġterritory": 3853,
      "oa": 3854,
      "Ġsufficient": 3855,
      "Ġsell": 3856,
      "Ġactivity": 3857,
      "Ġprofess": 3858,
      "rap": 3859,
      "ĠÃł": 3860,
      "ĠDIS": 3861,
      "Ġban": 3862,
      "Ġservices": 3863,
      "Ġdifference": 3864,
      "labor": 3865,
      "Ġrelation": 3866,
      "aff": 3867,
      "Ġperm": 3868,
      "ĠGROUPS": 3869,
      "Ġburn": 3870,
      "Ġunderstanding": 3871,
      "Ġlargely": 3872,
      "90": 3873,
      "ridge": 3874,
      "Ġnatives": 3875,
      "Ġthir": 3876,
      "ĠMexican": 3877,
      "ĠPeople": 3878,
      "Ġstates": 3879,
      "pping": 3880,
      "Ġfeatures": 3881,
      "Ġrank": 3882,
      "ĠRob": 3883,
      "Ġnote": 3884,
      "ĠTRADE": 3885,
      "VES": 3886,
      "Ġfolk": 3887,
      "Ġreached": 3888,
      "Ġbenef": 3889,
      "Ġfigure": 3890,
      "Ġvariety": 3891,
      "ĠGr": 3892,
      "ĠNational": 3893,
      "ELLING": 3894,
      "Ġ1960": 3895,
      "Ġhorse": 3896,
      "uy": 3897,
      "Ġnamed": 3898,
      "Ġobv": 3899,
      "Ġlog": 3900,
      "Ġsoci": 3901,
      "ĠSant": 3902,
      "Ġanthropologists": 3903,
      "Ġformed": 3904,
      "Ġbreak": 3905,
      "iled": 3906,
      "Ġincreased": 3907,
      "ĠIDENTIFICATION": 3908,
      "face": 3909,
      "anged": 3910,
      "Ġ33": 3911,
      "Ġnumerous": 3912,
      "Ġexistence": 3913,
      "Ġproduce": 3914,
      "itting": 3915,
      "Ġcouncil": 3916,
      "Ġcorrespond": 3917,
      "Ġuseful": 3918,
      "Ġgods": 3919,
      "Ġneeds": 3920,
      "Ġharvest": 3921,
      "Ġusing": 3922,
      "Ġbra": 3923,
      "aro": 3924,
      "Ġslight": 3925,
      "amples": 3926,
      "Ġshaman": 3927,
      "Ġnearly": 3928,
      "rove": 3929,
      "ATIVE": 3930,
      "ĠJapanese": 3931,
      "gen": 3932,
      "Ġbuilding": 3933,
      "Ġrules": 3934,
      "Ġnumbers": 3935,
      "ĠDep": 3936,
      "ĠAnt": 3937,
      "Ġrich": 3938,
      "Ġmass": 3939,
      "hered": 3940,
      "Ġdoct": 3941,
      "171": 3942,
      "Ġtowards": 3943,
      "ney": 3944,
      "ĠPublished": 3945,
      "ĠFirst": 3946,
      "ĠChicago": 3947,
      "ga": 3948,
      "Ġindeed": 3949,
      "eer": 3950,
      "ecause": 3951,
      "stances": 3952,
      "Ġrepresented": 3953,
      "Ġsupposed": 3954,
      "PLO": 3955,
      "Ġadded": 3956,
      "icks": 3957,
      "Ġ49": 3958,
      "Ġaltern": 3959,
      "ili": 3960,
      "ech": 3961,
      "idents": 3962,
      "Ġconstant": 3963,
      "Ġfinally": 3964,
      "ĠSY": 3965,
      "ĠEn": 3966,
      "theless": 3967,
      "Ġemployed": 3968,
      "ĠEDUCATION": 3969,
      "erc": 3970,
      "Ġeyes": 3971,
      "Ġsor": 3972,
      "ourse": 3973,
      "Ġimmediately": 3974,
      "ĠANT": 3975,
      "iber": 3976,
      "Ġprincipal": 3977,
      "Ġapparently": 3978,
      "Ġ554": 3979,
      "eos": 3980,
      "Ġconclus": 3981,
      "Ġfine": 3982,
      "ĠAmong": 3983,
      "URE": 3984,
      "Ġ&": 3985,
      "St": 3986,
      "Ġmerely": 3987,
      "Ġtitle": 3988,
      "alle": 3989,
      "Ä«": 3990,
      "ĠSem": 3991,
      "Ġsaying": 3992,
      "Ġ756": 3993,
      "Ġcategories": 3994,
      "Ġinteg": 3995,
      "Ġofficials": 3996,
      "Ġgiving": 3997,
      "ension": 3998,
      "Ġvict": 3999,
      "Ġquestions": 4000,
      "Ġsort": 4001,
      "uge": 4002,
      "ĠDIET": 4003,
      "Ġschol": 4004,
      "aho": 4005,
      "igen": 4006,
      "Ġran": 4007,
      "Ġentirely": 4008,
      "STEM": 4009,
      "reek": 4010,
      "ĠOld": 4011,
      "ĠSYSTEM": 4012,
      "Ġthreat": 4013,
      "ĠPRODUCTION": 4014,
      "ĠCentral": 4015,
      "ĠItalian": 4016,
      "izes": 4017,
      "Ġdeceased": 4018,
      "ĠTwo": 4019,
      "ĠSer": 4020,
      "Ġreasons": 4021,
      "ao": 4022,
      "iance": 4023,
      "Ġstarted": 4024,
      "aving": 4025,
      "Ġevil": 4026,
      "fare": 4027,
      "49": 4028,
      "iques": 4029,
      "Ġpurch": 4030,
      "Ġapplied": 4031,
      "Ġcele": 4032,
      "Ġsignificance": 4033,
      "AGON": 4034,
      "ISMS": 4035,
      "ĠANTAGON": 4036,
      "ĠANTAGONISMS": 4037,
      "ĠINGROUP": 4038,
      "Ġliterature": 4039,
      "inally": 4040,
      "Ġarrange": 4041,
      "Ġmajority": 4042,
      "Ġfinal": 4043,
      "ĠBo": 4044,
      "Ġprimarily": 4045,
      "Ġserious": 4046,
      "ĠGen": 4047,
      "ĠCO": 4048,
      "Ġcontem": 4049,
      "Ġtable": 4050,
      "Ġmeeting": 4051,
      "ground": 4052,
      "Ġinstead": 4053,
      "itable": 4054,
      "ression": 4055,
      "Americ": 4056,
      "Ġplants": 4057,
      "Ġcooper": 4058,
      "Ġprepared": 4059,
      "Ġideas": 4060,
      "Ġgrass": 4061,
      "Ġfort": 4062,
      "TICES": 4063,
      "Ġsurround": 4064,
      "ĠPRACTICES": 4065,
      "ERVATION": 4066,
      "Ġprepar": 4067,
      "ANY": 4068,
      "Ġdoing": 4069,
      "ĠREG": 4070,
      "ĠCity": 4071,
      "Ġturned": 4072,
      "ĠReview": 4073,
      "lac": 4074,
      "vere": 4075,
      "RAF": 4076,
      "Ġdrum": 4077,
      "Ġrecognized": 4078,
      "Ġconflict": 4079,
      "eding": 4080,
      "Ġserved": 4081,
      "ORK": 4082,
      "Ġmarked": 4083,
      "If": 4084,
      "Ġteac": 4085,
      "Ġcop": 4086,
      "Ġexpressed": 4087,
      "Ġspread": 4088,
      "Ġdirection": 4089,
      "orses": 4090,
      "Ġappropri": 4091,
      "DITIONAL": 4092,
      "Ġbat": 4093,
      "Ġ21": 4094,
      "natural": 4095,
      "Ġ:": 4096,
      "rim": 4097,
      "Ġtou": 4098,
      "Ã©s": 4099,
      "Ġheads": 4100,
      "Ġlink": 4101,
      "ĠTERM": 4102,
      "lying": 4103,
      "urally": 4104,
      "ancy": 4105,
      "ĠREGULATION": 4106,
      "Ġinstitutions": 4107,
      "Ġprevent": 4108,
      "Ġpeace": 4109,
      "Ġserve": 4110,
      "Ġfavor": 4111,
      "Ġmult": 4112,
      "Ġwestern": 4113,
      "RIC": 4114,
      "BOT": 4115,
      "Å«": 4116,
      "Ġlegal": 4117,
      "Ġstre": 4118,
      "ĠChar": 4119,
      "Ġnotes": 4120,
      "ĠGE": 4121,
      "izations": 4122,
      "ĠDes": 4123,
      "Ġfast": 4124,
      "ERN": 4125,
      "ATOLOGY": 4126,
      "ELD": 4127,
      "wards": 4128,
      "ĠRic": 4129,
      "70": 4130,
      "Ġeasily": 4131,
      "Ġopin": 4132,
      "TICS": 4133,
      "ĠETHNOBOT": 4134,
      "ĠETHNOBOTANY": 4135,
      "ava": 4136,
      "Ġmilitary": 4137,
      "Ġasse": 4138,
      "wan": 4139,
      "ĠGeor": 4140,
      "ulu": 4141,
      "Ġask": 4142,
      "ĠChief": 4143,
      "Ġresidence": 4144,
      "Ġarrived": 4145,
      "Ġstick": 4146,
      "Ġtreatment": 4147,
      "Ġdwell": 4148,
      "Ġinstruct": 4149,
      "ĠCamb": 4150,
      "lement": 4151,
      "Ġcontinue": 4152,
      "Ġ38": 4153,
      "Ġprimary": 4154,
      "Ġlove": 4155,
      "lications": 4156,
      "alt": 4157,
      "Ġdivision": 4158,
      "Ġgrowth": 4159,
      "Ġinhabit": 4160,
      "Ġattack": 4161,
      "ĠIbid": 4162,
      "Ġmut": 4163,
      "ĠPOP": 4164,
      "usion": 4165,
      "Ġprivate": 4166,
      "Ġwel": 4167,
      "Ġcategory": 4168,
      "Ġappeared": 4169,
      "].": 4170,
      "ensus": 4171,
      "âĢĿ,": 4172,
      "uary": 4173,
      "ura": 4174,
      "ugh": 4175,
      "ige": 4176,
      "Ġ22": 4177,
      "olic": 4178,
      "ĠMor": 4179,
      "Ġinterview": 4180,
      "Ġproduced": 4181,
      "31": 4182,
      "Ġtowns": 4183,
      "ĠPOPULATION": 4184,
      "Ġ1980": 4185,
      "Ġunits": 4186,
      "Ġfert": 4187,
      "Ġneither": 4188,
      "ĠTRANSL": 4189,
      "ĠTable": 4190,
      "Ġdim": 4191,
      "ĠCoun": 4192,
      "Ġroad": 4193,
      "Ġconnection": 4194,
      "ially": 4195,
      "ibly": 4196,
      "Ġshell": 4197,
      "ĠBURIAL": 4198,
      "ĠWEL": 4199,
      "Ġconcerning": 4200,
      "ĠVIS": 4201,
      "Ġavoid": 4202,
      "Ġschools": 4203,
      "ERALS": 4204,
      "Ġsites": 4205,
      "Ġreceive": 4206,
      "ĠFUNERALS": 4207,
      "ĠMongol": 4208,
      "mother": 4209,
      "ĠWomen": 4210,
      "ĠKing": 4211,
      "exts": 4212,
      "ĠCont": 4213,
      "Ġlik": 4214,
      "ĠCommun": 4215,
      "wood": 4216,
      "rec": 4217,
      "ords": 4218,
      "mm": 4219,
      "pa": 4220,
      "Ġpopular": 4221,
      "Ġgovern": 4222,
      "Ġaccess": 4223,
      "Ġcondition": 4224,
      "ugg": 4225,
      "ĠVolume": 4226,
      "Ġhum": 4227,
      "Ġcurrent": 4228,
      "Ġsup": 4229,
      "ĠHa": 4230,
      "Ġties": 4231,
      "Ġwitch": 4232,
      "Ġclosely": 4233,
      "ĠStudies": 4234,
      "Ġindicate": 4235,
      "Ġwish": 4236,
      "Ġunf": 4237,
      "Ġreferred": 4238,
      "kness": 4239,
      "Ġpotential": 4240,
      "Ġdecl": 4241,
      "urd": 4242,
      "Ġframe": 4243,
      "Ġmethods": 4244,
      "Ġworks": 4245,
      "PLOY": 4246,
      "ĠEMPLOY": 4247,
      "ĠFIELD": 4248,
      "ĠNegro": 4249,
      "Ġmarriages": 4250,
      "ĠEMPLOYMENT": 4251,
      "HING": 4252,
      "aching": 4253,
      "ĠHaw": 4254,
      "house": 4255,
      "ops": 4256,
      "ĠENG": 4257,
      "ĠGAR": 4258,
      "Ġperman": 4259,
      "Ġheart": 4260,
      "Ġinside": 4261,
      "oma": 4262,
      "Ġsick": 4263,
      "For": 4264,
      "Ġesc": 4265,
      "ĠBY": 4266,
      "ĠHopi": 4267,
      "39": 4268,
      "Ġprovides": 4269,
      "Ġrapid": 4270,
      "Ġphen": 4271,
      "Ġdecor": 4272,
      "38": 4273,
      "ĠEv": 4274,
      "Ġspace": 4275,
      "Ġrate": 4276,
      "uz": 4277,
      "Ġcy": 4278,
      "ously": 4279,
      "Ġlearned": 4280,
      "Ġstated": 4281,
      "Ġweak": 4282,
      "Ġsmaller": 4283,
      "ĠWELFARE": 4284,
      "ĠOnly": 4285,
      "Ġmom": 4286,
      "On": 4287,
      "more": 4288,
      "Ġpolicy": 4289,
      "Al": 4290,
      "Ġcontinu": 4291,
      "ĠChurch": 4292,
      "Ġproceed": 4293,
      "Ġsuggests": 4294,
      "pective": 4295,
      "Ġport": 4296,
      "Ġ423": 4297,
      "acks": 4298,
      "Ġadvant": 4299,
      "Ġtied": 4300,
      "Ġquick": 4301,
      "Ġcustoms": 4302,
      "Ġhorses": 4303,
      "At": 4304,
      "Ġconclud": 4305,
      "Ġquant": 4306,
      "Ġste": 4307,
      "Ġfarmers": 4308,
      "Ġreflect": 4309,
      "Ġsomeone": 4310,
      "Ġ614": 4311,
      "Ġscient": 4312,
      "eter": 4313,
      "LISH": 4314,
      "ILS": 4315,
      "ĠLINE": 4316,
      "ĠAng": 4317,
      "ĠENGLISH": 4318,
      "Ġvo": 4319,
      "Ġcollected": 4320,
      "Ġdiss": 4321,
      "ĠINTO": 4322,
      "UST": 4323,
      "Ġcircumstances": 4324,
      "ĠGreat": 4325,
      "Ġcertainly": 4326,
      "Ġvirt": 4327,
      "ĠTRANSLATED": 4328,
      "Ġinstitution": 4329,
      "Ġexact": 4330,
      "Ġhyp": 4331,
      "Ġneeded": 4332,
      "Ġtried": 4333,
      "ĠLINEAGES": 4334,
      "Ġoppos": 4335,
      "ĠCath": 4336,
      "Ġanaly": 4337,
      "ĠJew": 4338,
      "Ġdoor": 4339,
      "cra": 4340,
      "Ġvalu": 4341,
      "Ġagriculture": 4342,
      "128": 4343,
      "Ġwa": 4344,
      "Ġelders": 4345,
      "ĠTRADITIONAL": 4346,
      "],": 4347,
      "Ġcanoe": 4348,
      "âĢĿ.": 4349,
      "orial": 4350,
      "Ġadministr": 4351,
      "Ġillness": 4352,
      "Ġsure": 4353,
      "Ġprevious": 4354,
      "omp": 4355,
      "rial": 4356,
      "Ġshr": 4357,
      "Ġorganized": 4358,
      "Ġnar": 4359,
      "Ġ87": 4360,
      "Ġinterests": 4361,
      "ĠDA": 4362,
      "ees": 4363,
      "Ġsan": 4364,
      "ĠIr": 4365,
      "Ġ100": 4366,
      "Ġna": 4367,
      "ITI": 4368,
      "PING": 4369,
      "ĠDist": 4370,
      "Ġsend": 4371,
      "ĠCouncil": 4372,
      "Ġprefer": 4373,
      "Ġowner": 4374,
      "ĠHISTOR": 4375,
      "Ġcoc": 4376,
      "Ġrecently": 4377,
      "ĠMc": 4378,
      "Ġspecies": 4379,
      "ĠHISTORICAL": 4380,
      "ĠCher": 4381,
      "anga": 4382,
      "ĠMed": 4383,
      "conomic": 4384,
      "35": 4385,
      "Ġign": 4386,
      "Ġ1950": 4387,
      "GATIONS": 4388,
      "oro": 4389,
      "Ġelsewhere": 4390,
      "Ġusual": 4391,
      "Ġtransform": 4392,
      "Ġoccurred": 4393,
      "ĠPARTIC": 4394,
      "Ġexpression": 4395,
      "come": 4396,
      "ĠYet": 4397,
      "oming": 4398,
      "Ġcolor": 4399,
      "ĠMin": 4400,
      "ĠPARTICIP": 4401,
      "Ġqual": 4402,
      "Ġbaby": 4403,
      "ĠArab": 4404,
      "ĠPARTICIPATION": 4405,
      "116": 4406,
      "Ġenj": 4407,
      "with": 4408,
      "Ġgrowing": 4409,
      "ternational": 4410,
      "Ġbuff": 4411,
      "oved": 4412,
      "IES": 4413,
      "Ġdaily": 4414,
      "ARD": 4415,
      "Ġphenomen": 4416,
      "Ġsuc": 4417,
      "ĠAc": 4418,
      "gn": 4419,
      "ey": 4420,
      "Ġinformant": 4421,
      "pir": 4422,
      "Ġpieces": 4423,
      "Ġexclus": 4424,
      "ĠMOV": 4425,
      "Ġmaterials": 4426,
      "Ġcompletely": 4427,
      "aped": 4428,
      "Ġ824": 4429,
      "PAR": 4430,
      "alled": 4431,
      "Ġseemed": 4432,
      "ureau": 4433,
      "Ġsen": 4434,
      "Ġcontribut": 4435,
      "Ġwalk": 4436,
      "Ġpowerful": 4437,
      "ĠBoth": 4438,
      "Ġforces": 4439,
      "LAS": 4440,
      "Ġisol": 4441,
      "Ġmusic": 4442,
      "Ġspring": 4443,
      "Ġsuccessful": 4444,
      "Ġpreced": 4445,
      "onom": 4446,
      "Ġmeasure": 4447,
      "Ġsettled": 4448,
      "Ġcultures": 4449,
      "SP": 4450,
      "Ġindependent": 4451,
      "Ġconstruction": 4452,
      "ĠMISSION": 4453,
      "Ġdefined": 4454,
      "Ġappoint": 4455,
      "Ġaccepted": 4456,
      "Ġencoura": 4457,
      "Ġmor": 4458,
      "iful": 4459,
      "ĠMISSIONS": 4460,
      "Ġstatement": 4461,
      "ĠPERSONAL": 4462,
      "rilineal": 4463,
      "Ġfeather": 4464,
      "37": 4465,
      "ĠINTERVIEW": 4466,
      "uration": 4467,
      "iy": 4468,
      "Ġexplained": 4469,
      "acco": 4470,
      "orical": 4471,
      "Ġcapt": 4472,
      "ĠINTERVIEWING": 4473,
      "ĠHRAF": 4474,
      "Ġchap": 4475,
      "Ġpeasant": 4476,
      "Ġanthropological": 4477,
      "alu": 4478,
      "ida": 4479,
      "Ġgone": 4480,
      "SHIP": 4481,
      "LEC": 4482,
      "Ġhear": 4483,
      "Ġwarri": 4484,
      "ĠPuerto": 4485,
      "ĠES": 4486,
      "ĠART": 4487,
      "Ġrequire": 4488,
      "ado": 4489,
      "Ġmales": 4490,
      "Ġevening": 4491,
      "aster": 4492,
      "Ġconvers": 4493,
      "Ġsecret": 4494,
      "Ġfunctions": 4495,
      "appe": 4496,
      "ĠAust": 4497,
      "Ġsand": 4498,
      "ald": 4499,
      "COME": 4500,
      "available": 4501,
      "ĠHouse": 4502,
      "ho": 4503,
      "Ġhut": 4504,
      "ĠINCOME": 4505,
      "licit": 4506,
      "Ġcolonial": 4507,
      "ĠETHNIC": 4508,
      "ildren": 4509,
      "Ġchanged": 4510,
      "Ġdecided": 4511,
      "Ġimmigrants": 4512,
      "Ġevident": 4513,
      "uel": 4514,
      "Ġrecorded": 4515,
      "ĠLOC": 4516,
      "Ġraised": 4517,
      "Ġtheore": 4518,
      "ALI": 4519,
      "ĠBur": 4520,
      "cha": 4521,
      "Ġordinary": 4522,
      "erences": 4523,
      "Ġfruit": 4524,
      "Ġwooden": 4525,
      "ĠArchae": 4526,
      "ometimes": 4527,
      "Ġparties": 4528,
      "ĠÃ©": 4529,
      "Ġoccasions": 4530,
      "ima": 4531,
      "ĠAnother": 4532,
      "earch": 4533,
      "illage": 4534,
      "ENTAL": 4535,
      "ĠAug": 4536,
      "Ġang": 4537,
      "Ġpatient": 4538,
      "ĠFOOD": 4539,
      "ĠArt": 4540,
      "Ġethnographic": 4541,
      "»¿": 4542,
      "ï»¿": 4543,
      "ille": 4544,
      "iers": 4545,
      "THOOD": 4546,
      "Ġprest": 4547,
      "lin": 4548,
      "Ġ37": 4549,
      "ĠMENTAL": 4550,
      "body": 4551,
      "anging": 4552,
      "ĠMAGICAL": 4553,
      "ements": 4554,
      "ming": 4555,
      "ĠMen": 4556,
      "Ġ1968": 4557,
      "ips": 4558,
      "UNTING": 4559,
      "iment": 4560,
      "Ġbes": 4561,
      "ita": 4562,
      "Ġshif": 4563,
      "ĠINFORM": 4564,
      "Ġmill": 4565,
      "lication": 4566,
      "ĠDepartment": 4567,
      "rated": 4568,
      "ios": 4569,
      "Ġ1972": 4570,
      "Ġspeech": 4571,
      "ĠCLAS": 4572,
      "Ġlanguages": 4573,
      "emic": 4574,
      "Åį": 4575,
      "Ġcorrect": 4576,
      "Ġforth": 4577,
      "Ġaffairs": 4578,
      "BAL": 4579,
      "ĠJan": 4580,
      "Ġmatters": 4581,
      "Ġsupply": 4582,
      "Ġ1966": 4583,
      "Ġcollection": 4584,
      "Ġadm": 4585,
      "arian": 4586,
      "Ġheavy": 4587,
      "Ġsucce": 4588,
      "hi": 4589,
      "ners": 4590,
      "ĠDOC": 4591,
      "Ġ789": 4592,
      "lers": 4593,
      "Ġcash": 4594,
      "Ã³n": 4595,
      "Ġevolution": 4596,
      "Ġloss": 4597,
      "Ġlocated": 4598,
      "Ġcommer": 4599,
      "Ġ26": 4600,
      "GRE": 4601,
      "ender": 4602,
      "Ġpurposes": 4603,
      "Ġcouple": 4604,
      "ĠDav": 4605,
      "lore": 4606,
      "Ġenjoy": 4607,
      "Ġ1971": 4608,
      "Ġresponsible": 4609,
      "roy": 4610,
      "ZO": 4611,
      "Ġinhabitants": 4612,
      "!âĢĿ": 4613,
      "Ġready": 4614,
      "va": 4615,
      "ĠCOMPL": 4616,
      "ĠIndia": 4617,
      "Ġ39": 4618,
      "ĠDOCUMENTS": 4619,
      "Ġ(âĢľ": 4620,
      "host": 4621,
      "Ġcontract": 4622,
      "bu": 4623,
      "Ġworth": 4624,
      "idden": 4625,
      "bal": 4626,
      "Ġiron": 4627,
      "rient": 4628,
      "Ġprice": 4629,
      "Ġdaughters": 4630,
      "ĠCLASSES": 4631,
      "ĠCOMPLETE": 4632,
      "Ã´": 4633,
      "Ġregular": 4634,
      "Ġeaten": 4635,
      "Ġ562": 4636,
      "Ġrub": 4637,
      "Ġeastern": 4638,
      "Ġsides": 4639,
      "Ġ1967": 4640,
      "Ġislands": 4641,
      "ĠPL": 4642,
      "lands": 4643,
      "Ġarchae": 4644,
      "ĠAssoci": 4645,
      "ORC": 4646,
      "ĠPERSONALITY": 4647,
      "unk": 4648,
      "ĠChapter": 4649,
      "ump": 4650,
      "Ġstones": 4651,
      "ĠMo": 4652,
      "Ġsem": 4653,
      "atever": 4654,
      "Ġattract": 4655,
      "ĠETHNOZO": 4656,
      "ĠETHNOZOOLOGY": 4657,
      "Ġaccounts": 4658,
      "ĠHUNTING": 4659,
      "Ġcaused": 4660,
      "Ġthous": 4661,
      "iger": 4662,
      "aint": 4663,
      "ĠReport": 4664,
      "ĠMO": 4665,
      "ĠSmith": 4666,
      "Ġapprox": 4667,
      "Ġmilk": 4668,
      "ĠPre": 4669,
      "Ġrituals": 4670,
      "GREGATIONS": 4671,
      "Ġdrawn": 4672,
      "ĠCONGREGATIONS": 4673,
      "ĠSou": 4674,
      "Ġcomparative": 4675,
      "Ġpresents": 4676,
      "Ġnone": 4677,
      "Ġbuy": 4678,
      "ode": 4679,
      "Ġninet": 4680,
      "ĠBay": 4681,
      "Ġrepro": 4682,
      "Ġtry": 4683,
      "ino": 4684,
      "ĠNorthern": 4685,
      "ĠFurther": 4686,
      "ORCERY": 4687,
      "ĠSORCERY": 4688,
      "ĠIND": 4689,
      "chan": 4690,
      "ĠValley": 4691,
      "Ġdial": 4692,
      "aled": 4693,
      "Ġelement": 4694,
      "ĠCambridge": 4695,
      "unavailable": 4696,
      "Ġeffort": 4697,
      "Ġdream": 4698,
      "athered": 4699,
      "ĠRobert": 4700,
      "ĠMEDICAL": 4701,
      "Ġbeaut": 4702,
      "Å¡": 4703,
      "Ġec": 4704,
      "Ġ1976": 4705,
      "OMES": 4706,
      "cing": 4707,
      "Ġtreated": 4708,
      "UT": 4709,
      "Ġ+": 4710,
      "Ġweek": 4711,
      "Ġassociation": 4712,
      "AIN": 4713,
      "Ġ643": 4714,
      "ĠWilliam": 4715,
      "Ġprogress": 4716,
      "Ġ200": 4717,
      "OMESTIC": 4718,
      "Ġclos": 4719,
      "ĠSar": 4720,
      "ITAL": 4721,
      "Ġjour": 4722,
      "Ġil": 4723,
      "Ġsisters": 4724,
      "Ġproced": 4725,
      "ĠFranc": 4726,
      "wing": 4727,
      "Ġhier": 4728,
      "nes": 4729,
      "ĠAL": 4730,
      "uthors": 4731,
      "ĠANIMALS": 4732,
      "Ġsurpr": 4733,
      "Ġexplanation": 4734,
      "odge": 4735,
      "ĠHOSP": 4736,
      "ĠBel": 4737,
      "gend": 4738,
      "Ġcreated": 4739,
      "ĠLand": 4740,
      "mong": 4741,
      "ference": 4742,
      "ĠHOSPIT": 4743,
      "Ġarticle": 4744,
      "ULT": 4745,
      "ĠRussian": 4746,
      "Ġlos": 4747,
      "that": 4748,
      "ĠNON": 4749,
      "Ġabsence": 4750,
      "bre": 4751,
      "Ġpowers": 4752,
      "Ġclasses": 4753,
      "Ġrad": 4754,
      "Ġimposs": 4755,
      "Ġ1969": 4756,
      "Ġguard": 4757,
      "andon": 4758,
      "Ġgifts": 4759,
      "isher": 4760,
      "ĠHEAD": 4761,
      "Ġintroduced": 4762,
      "Ġ1965": 4763,
      "Ġequal": 4764,
      "Ġdress": 4765,
      "Ġsuggested": 4766,
      "roup": 4767,
      "Ġslaves": 4768,
      "Ġbeliefs": 4769,
      "ids": 4770,
      "ĠMes": 4771,
      "Ġconsists": 4772,
      "ĠLangu": 4773,
      "vi": 4774,
      "ĠPat": 4775,
      "oric": 4776,
      "Ġ1964": 4777,
      "ĠDOMESTIC": 4778,
      "Ġplayed": 4779,
      "Ãł": 4780,
      "Ġdisease": 4781,
      "Ġnom": 4782,
      "ĠHEADS": 4783,
      ".]": 4784,
      "pro": 4785,
      "Ġcontemporary": 4786,
      "olk": 4787,
      "Ġregions": 4788,
      "101": 4789,
      "Ġefforts": 4790,
      "Ġelabor": 4791,
      "indeer": 4792,
      "Ġmeant": 4793,
      "CO": 4794,
      "Ġstyle": 4795,
      "ĠDW": 4796,
      "Ġ464": 4797,
      "Ġinherit": 4798,
      "Ġbark": 4799,
      "Ġrock": 4800,
      "Ġactive": 4801,
      "Ġarche": 4802,
      "itudes": 4803,
      "Ġadditional": 4804,
      "Ġspeaking": 4805,
      "Ġcand": 4806,
      "Ġstock": 4807,
      "Ġindicated": 4808,
      "Ġshar": 4809,
      "Ġcreat": 4810,
      "Ġfell": 4811,
      "Ġadopted": 4812,
      "Ġgenerations": 4813,
      "ULES": 4814,
      "ounds": 4815,
      "Ġhours": 4816,
      "Ġsupernatural": 4817,
      "ĠMat": 4818,
      "Ġstandard": 4819,
      "encies": 4820,
      "Ġissue": 4821,
      "Ġeverything": 4822,
      "ws": 4823,
      "Ġcommitt": 4824,
      "ĠPRIES": 4825,
      "ĠDWELLING": 4826,
      "Ġbase": 4827,
      "Ġlooked": 4828,
      "Ġintroduction": 4829,
      "Ġpath": 4830,
      "ĠAmericans": 4831,
      "Ġ175": 4832,
      "Ġends": 4833,
      "ĠDWELLINGS": 4834,
      "Ġsoul": 4835,
      "Ġthirty": 4836,
      "ĠResearch": 4837,
      "Ġmort": 4838,
      "Ġsurvey": 4839,
      "Ġauthors": 4840,
      "Ġprocesses": 4841,
      "ĠPRIESTHOOD": 4842,
      "OVERN": 4843,
      "iri": 4844,
      "ĠTAB": 4845,
      "Ġ1979": 4846,
      "ĠESCH": 4847,
      "Ġparalle": 4848,
      "ĠSu": 4849,
      "Ġmainly": 4850,
      "Ġveget": 4851,
      "Ġfully": 4852,
      "ĠESCHATOLOGY": 4853,
      "Ġexplain": 4854,
      "ĠGOVERN": 4855,
      "Ġrecon": 4856,
      "Ġitems": 4857,
      "ishing": 4858,
      "((": 4859,
      "FT": 4860,
      "ola": 4861,
      "ECH": 4862,
      "ĠGOVERNMENT": 4863,
      "Ġprayer": 4864,
      "ĠAnthropological": 4865,
      "Ġinterpretation": 4866,
      "ĠâĢĿ": 4867,
      "ĠVER": 4868,
      "Ġcultivation": 4869,
      "Ġsoil": 4870,
      "osen": 4871,
      "ias": 4872,
      "born": 4873,
      "Ġarticles": 4874,
      "Ġrace": 4875,
      "Ġopinion": 4876,
      "heast": 4877,
      "ider": 4878,
      "Ġdetailed": 4879,
      "imo": 4880,
      "fect": 4881,
      "icial": 4882,
      "Ġrecip": 4883,
      "Ġpointed": 4884,
      "Ġcharacteristic": 4885,
      "Ġ1975": 4886,
      "otton": 4887,
      "Ġreports": 4888,
      "Ġstories": 4889,
      "Ġ262": 4890,
      "Ġ825": 4891,
      "32": 4892,
      "iling": 4893,
      "Ġscar": 4894,
      "ĠJune": 4895,
      "urity": 4896,
      "ĠTrib": 4897,
      "lex": 4898,
      "Ã®": 4899,
      "Ġtob": 4900,
      "aga": 4901,
      "Ġconce": 4902,
      "tion": 4903,
      "erved": 4904,
      "Ġ1977": 4905,
      "Ġinn": 4906,
      "Ġprinciple": 4907,
      "Ġfocus": 4908,
      "Ġquality": 4909,
      "ĠIts": 4910,
      "Ġdate": 4911,
      "Ġdivor": 4912,
      "Ġleadership": 4913,
      "Ġthrow": 4914,
      "Ġconsc": 4915,
      "Ġabandon": 4916,
      "Ġbod": 4917,
      "Ġvalley": 4918,
      "ĠSur": 4919,
      "Ġanyone": 4920,
      "Ġspent": 4921,
      "iate": 4922,
      "Ġadministration": 4923,
      "ĠOBS": 4924,
      "Ġsacrifice": 4925,
      "Ġ80": 4926,
      "Ġdyn": 4927,
      "Ġ1974": 4928,
      "rael": 4929,
      "ĠVERBAL": 4930,
      "Ġep": 4931,
      "Ġcarrying": 4932,
      "ĠOBSERVATION": 4933,
      "riage": 4934,
      "Ġ602": 4935,
      "Ġbord": 4936,
      "Ġinterpre": 4937,
      "igenous": 4938,
      "play": 4939,
      "Ġamb": 4940,
      "Ġmeal": 4941,
      "ifest": 4942,
      "Ġpros": 4943,
      "Ġexamples": 4944,
      "inity": 4945,
      "onse": 4946,
      "Ġbit": 4947,
      "Ġsav": 4948,
      "Ġgain": 4949,
      "Ġstage": 4950,
      "Ġmoral": 4951,
      "Ġclothing": 4952,
      "ĠBl": 4953,
      "Ġ1973": 4954,
      "ĠAGRI": 4955,
      "mes": 4956,
      "ĠOff": 4957,
      "Ġhung": 4958,
      "ulate": 4959,
      "ivity": 4960,
      "Ġcred": 4961,
      "vent": 4962,
      "Ġlinguistic": 4963,
      "Ġdocument": 4964,
      "gu": 4965,
      "Ġcous": 4966,
      "etic": 4967,
      "Ġexped": 4968,
      "Ġrepeated": 4969,
      "Ġforced": 4970,
      "gest": 4971,
      "Ġfamiliar": 4972,
      "Ġ613": 4973,
      "ĠIII": 4974,
      "ĠNavaho": 4975,
      "Ġoccasionally": 4976,
      "hel": 4977,
      "Ġemphasis": 4978,
      "imb": 4979,
      "Ġotherwise": 4980,
      "36": 4981,
      "ĠFinally": 4982,
      "ĠBudd": 4983,
      "lah": 4984,
      "Ġdancing": 4985,
      "Ġdesire": 4986,
      "Ġ797": 4987,
      "pril": 4988,
      "Ġimpossible": 4989,
      "Ġopportunity": 4990,
      "ashion": 4991,
      "hest": 4992,
      "ena": 4993,
      "Ġreservation": 4994,
      "Ġincludes": 4995,
      "ĠPREPAR": 4996,
      "Ġextend": 4997,
      "uries": 4998,
      "Ġlevels": 4999,
      "Ġneck": 5000,
      "Ġoriginally": 5001,
      "Ġderived": 5002,
      "Ġprimitive": 5003,
      "Ġrarely": 5004,
      "Ġmixed": 5005,
      "Ġtemple": 5006,
      "Ġmothers": 5007,
      "Ġ1930": 5008,
      "Ġcow": 5009,
      "Ġtal": 5010,
      "Ġmoment": 5011,
      "ĠFort": 5012,
      "Ġ1978": 5013,
      "ĠGIVING": 5014,
      "ĠGIFT": 5015,
      "Ġdecision": 5016,
      "orrow": 5017,
      "Ġsubstant": 5018,
      "WORK": 5019,
      "Ġgold": 5020,
      "Ġ657": 5021,
      "ĠAugust": 5022,
      "Ġmob": 5023,
      "Ġfactor": 5024,
      "ĠInter": 5025,
      "Ġattached": 5026,
      "Ġtermin": 5027,
      "ANGE": 5028,
      "Ġ794": 5029,
      "Ġstrateg": 5030,
      "Ġroof": 5031,
      "Ġattitude": 5032,
      "ĠSw": 5033,
      "Ġperformance": 5034,
      "Ġrespond": 5035,
      "iles": 5036,
      "Ġid": 5037,
      "Ġvary": 5038,
      "hens": 5039,
      "stood": 5040,
      "Ġbal": 5041,
      "ĠMiss": 5042,
      "Ġexception": 5043,
      "Ġsettlements": 5044,
      "ĠAnthropologist": 5045,
      "MA": 5046,
      "aya": 5047,
      "Ġaware": 5048,
      "Ġsurface": 5049,
      "Ġappropriate": 5050,
      "Ġfrequent": 5051,
      "ĠHawai": 5052,
      "ĠSal": 5053,
      "ĠAri": 5054,
      "Ġpunish": 5055,
      "Ġsinging": 5056,
      "ORT": 5057,
      "ĠNORMS": 5058,
      "ĠSun": 5059,
      "Ġlocation": 5060,
      "Ġexplo": 5061,
      "iva": 5062,
      "Ġdistinction": 5063,
      "Ġeffects": 5064,
      "Ġhot": 5065,
      "iable": 5066,
      "Ġconcent": 5067,
      "lege": 5068,
      "oud": 5069,
      "ĠTRAP": 5070,
      "173": 5071,
      "anted": 5072,
      "ights": 5073,
      "ĠTRAPPING": 5074,
      "Ġstrength": 5075,
      "Ġchoice": 5076,
      "Ġcry": 5077,
      "Ġapart": 5078,
      "ĠRev": 5079,
      "ĠAV": 5080,
      "Ġnation": 5081,
      "amily": 5082,
      "asc": 5083,
      "Ġchapters": 5084,
      "under": 5085,
      "inks": 5086,
      "Ġcharacteristics": 5087,
      "Ġassemb": 5088,
      "rat": 5089,
      "Ġcontent": 5090,
      "Ã¡n": 5091,
      "Ġtobacco": 5092,
      "zi": 5093,
      "ĠPort": 5094,
      "Ġpreviously": 5095,
      "Ġoccupied": 5096,
      "ients": 5097,
      "ĠKINSHIP": 5098,
      "ĠIDENTI": 5099,
      "Ġhope": 5100,
      "Ġ571": 5101,
      "Ġ1963": 5102,
      "ĠBecause": 5103,
      "Ġbund": 5104,
      "Ġorn": 5105,
      "ĠIDENTITY": 5106,
      "Ġfarming": 5107,
      "Ġaddress": 5108,
      "CHI": 5109,
      "imal": 5110,
      "ĠPRIDE": 5111,
      "Ġexcell": 5112,
      "Ġgrave": 5113,
      "Ġportion": 5114,
      "ĠCatholic": 5115,
      "ĠINTERNAL": 5116,
      "ĠDOMESTICATED": 5117,
      "Ġslow": 5118,
      "Ġsubsequ": 5119,
      "Ġ578": 5120,
      "Ġ902": 5121,
      "Ġability": 5122,
      "ĠJuly": 5123,
      "Ġmembership": 5124,
      "oyal": 5125,
      "Ġconnected": 5126,
      "ĠPac": 5127,
      "Ġpra": 5128,
      "uan": 5129,
      "Ġdark": 5130,
      "ESC": 5131,
      "Ġyield": 5132,
      "Ġaid": 5133,
      "Ġtask": 5134,
      "Ġmountains": 5135,
      "124": 5136,
      "ĠOct": 5137,
      "los": 5138,
      "Ġbott": 5139,
      "Ġhierarch": 5140,
      "itor": 5141,
      "ned": 5142,
      "Ġdepart": 5143,
      "Ġpick": 5144,
      "Ġvaluable": 5145,
      "Ġtraders": 5146,
      "Ġ1981": 5147,
      "Ġtraditions": 5148,
      "Ġappearance": 5149,
      "ĠEvery": 5150,
      "ĠCong": 5151,
      "Ġissues": 5152,
      "Ġemot": 5153,
      "Ġentered": 5154,
      "ira": 5155,
      "no": 5156,
      "ĠIsrael": 5157,
      "Ġtur": 5158,
      "Ġpossession": 5159,
      "Ġhappened": 5160,
      "Ġindustry": 5161,
      "ko": 5162,
      "lings": 5163,
      "erman": 5164,
      "Ġprogram": 5165,
      "cher": 5166,
      "orpor": 5167,
      "ogam": 5168,
      "Ġdances": 5169,
      "ĠNAMES": 5170,
      "Ġremar": 5171,
      "ares": 5172,
      "spe": 5173,
      "Ġrout": 5174,
      "resh": 5175,
      "Ġbed": 5176,
      "icip": 5177,
      "Ġcomment": 5178,
      "ĠTOP": 5179,
      "Ġperiods": 5180,
      "Ġclaims": 5181,
      "Ġfilm": 5182,
      "Ġeveryone": 5183,
      "RET": 5184,
      "Ġdefinite": 5185,
      "tt": 5186,
      "Ġ1961": 5187,
      "Ġinstr": 5188,
      "ĠGeorge": 5189,
      "Ġinches": 5190,
      "Ġmigration": 5191,
      "Ġ793": 5192,
      "Ġwedd": 5193,
      "ĠCount": 5194,
      "Ġmess": 5195,
      "ĠTOPOGRAPHY": 5196,
      "Ġprior": 5197,
      "ĠGEOLOGY": 5198,
      "Ġcommand": 5199,
      "Ġbird": 5200,
      "ĠThose": 5201,
      "Ġstrict": 5202,
      "Ġhosp": 5203,
      "ĠTRI": 5204,
      "Ġcommunication": 5205,
      "ographical": 5206,
      "Ġnarr": 5207,
      "Ġbegins": 5208,
      "Ġpicture": 5209,
      "ĠJames": 5210,
      "EMENTS": 5211,
      "Ġfra": 5212,
      "ĠSi": 5213,
      "Ġstore": 5214,
      "ota": 5215,
      "Ġherself": 5216,
      "Ġcompla": 5217,
      "Ġresidents": 5218,
      "Ġeating": 5219,
      "ku": 5220,
      "Ġadapt": 5221,
      "ĠLaw": 5222,
      "Ġproportion": 5223,
      "Ġ^*": 5224,
      "ĠIslam": 5225,
      "Ġassert": 5226,
      "Ġsubsistence": 5227,
      "zil": 5228,
      "Ġstanding": 5229,
      "ickness": 5230,
      "ALITIES": 5231,
      "He": 5232,
      "anches": 5233,
      "ĠSOD": 5234,
      "Ġtraining": 5235,
      "34": 5236,
      "Ġlabour": 5237,
      "ini": 5238,
      "ĠSODALITIES": 5239,
      "Ġextensive": 5240,
      "Ġresist": 5241,
      "era": 5242,
      "Ġextremely": 5243,
      "ober": 5244,
      "Ġbirds": 5245,
      "Ġphot": 5246,
      "Ġhypothes": 5247,
      "ĠDEN": 5248,
      "Ġlaid": 5249,
      "Ġrise": 5250,
      "Ġsolid": 5251,
      "Ġhomes": 5252,
      "po": 5253,
      "ĠAssociation": 5254,
      "know": 5255,
      "ato": 5256,
      "ibli": 5257,
      "ĠPhil": 5258,
      "Ġannual": 5259,
      "Ġprestige": 5260,
      "ĠCARE": 5261,
      "Ġowned": 5262,
      "SI": 5263,
      "Ġstrugg": 5264,
      "eded": 5265,
      "ĠINTERP": 5266,
      "DING": 5267,
      "Ġlies": 5268,
      "BER": 5269,
      "Ġgathered": 5270,
      "APT": 5271,
      "Ġtheoretical": 5272,
      "Ġ31": 5273,
      "Ġinterested": 5274,
      "rest": 5275,
      "Ġclothes": 5276,
      "ham": 5277,
      "Ġcritic": 5278,
      "craft": 5279,
      "Ġrepresents": 5280,
      "Ġwear": 5281,
      "One": 5282,
      "Ġanswer": 5283,
      "ĠEastern": 5284,
      "ude": 5285,
      "ett": 5286,
      "Ġremoved": 5287,
      "itch": 5288,
      "ĠKar": 5289,
      "Ġfed": 5290,
      "Ġenemy": 5291,
      "Ġdisappe": 5292,
      "isk": 5293,
      "ĠFUNC": 5294,
      "ĠSk": 5295,
      "ĠMarch": 5296,
      "Ġflat": 5297,
      "American": 5298,
      "oviet": 5299,
      "Ġresponsibility": 5300,
      "ARAC": 5301,
      "ĠRELIGION": 5302,
      "ĠFUNCTIONAL": 5303,
      "Ġvisited": 5304,
      "ARACTER": 5305,
      "omm": 5306,
      "ĠCHARACTER": 5307,
      "yal": 5308,
      "ĠINTERPRET": 5309,
      "ĠInt": 5310,
      "âĢĺ": 5311,
      "Ġstructural": 5312,
      "ueblo": 5313,
      "pic": 5314,
      "ram": 5315,
      "ĠEsk": 5316,
      "Ġshape": 5317,
      "ĠSept": 5318,
      "Ġopposite": 5319,
      "ACE": 5320,
      "ĠINTERPRETATIONS": 5321,
      "Ġremark": 5322,
      "APTATIONAL": 5323,
      "ĠPp": 5324,
      "Ġ1962": 5325,
      "ADAPTATIONAL": 5326,
      "iny": 5327,
      "Ġroles": 5328,
      "Ġestim": 5329,
      "aker": 5330,
      "ITING": 5331,
      "Ġsample": 5332,
      "Ġvictim": 5333,
      "Ġarms": 5334,
      "actions": 5335,
      "You": 5336,
      "Ġoil": 5337,
      "ĠVISITING": 5338,
      "crib": 5339,
      "Ġfellow": 5340,
      "ĠHOSPITALITY": 5341,
      "Ġru": 5342,
      "western": 5343,
      "enced": 5344,
      "ĠMoreover": 5345,
      "Ġsenior": 5346,
      "Ġleaving": 5347,
      "Ġnarrow": 5348,
      "Ġair": 5349,
      "ĠFather": 5350,
      "Ġuncle": 5351,
      "Ġideal": 5352,
      "greg": 5353,
      "NING": 5354,
      "but": 5355,
      "Ġrat": 5356,
      "Ġ1940": 5357,
      "ÂłÂłÂłÂłÂłÂłÂłÂłÂłÂłÂłÂłÂłÂłÂłÂł": 5358,
      "Ġindicates": 5359,
      "bur": 5360,
      "ĠNg": 5361,
      "Ġta": 5362,
      "Ġ1982": 5363,
      "Ġrecords": 5364,
      "essel": 5365,
      "Ġmaster": 5366,
      "Ġcelebr": 5367,
      "Ġreindeer": 5368,
      "Ġexerc": 5369,
      "423": 5370,
      "antic": 5371,
      "Ġfloor": 5372,
      "ĠSometimes": 5373,
      "ss": 5374,
      "Ġune": 5375,
      "Ġinternal": 5376,
      "ĠTib": 5377,
      "Ġunderstood": 5378,
      "amental": 5379,
      "ĠLou": 5380,
      "Ġaccompanied": 5381,
      "Ġhabit": 5382,
      "irect": 5383,
      "Ġgrown": 5384,
      "ĠSa": 5385,
      "inate": 5386,
      "Ġbeings": 5387,
      "uma": 5388,
      "ĠMich": 5389,
      "IOLOGY": 5390,
      "Ġuses": 5391,
      "OMIN": 5392,
      "Ġlot": 5393,
      "ĠDANCE": 5394,
      "Ġcotton": 5395,
      "Ġdetails": 5396,
      "Ġimmediate": 5397,
      "gin": 5398,
      "ORAL": 5399,
      "Ġfing": 5400,
      "ĠMOVEMENTS": 5401,
      "rep": 5402,
      "Ġgeneal": 5403,
      "Ġleading": 5404,
      "ufact": 5405,
      "Ġpure": 5406,
      "Ġgenealog": 5407,
      "Ġresponse": 5408,
      "75": 5409,
      "Ġsections": 5410,
      "roqu": 5411,
      "Ġsymbolic": 5412,
      "Ġmedical": 5413,
      "Ġconqu": 5414,
      "Ġindex": 5415,
      "cles": 5416,
      "emb": 5417,
      "Ġdetermined": 5418,
      "Ġshared": 5419,
      "Ġ565": 5420,
      "ĠDENOMIN": 5421,
      "Ġconcepts": 5422,
      "Ġconver": 5423,
      "ĠDENOMINATIONS": 5424,
      "eration": 5425,
      "Ġequally": 5426,
      "Ġorient": 5427,
      "IZATION": 5428,
      "Ġformerly": 5429,
      "Ġachieve": 5430,
      "Ġbush": 5431,
      "ĠMuslim": 5432,
      "Ġcold": 5433,
      "Ġtransport": 5434,
      "Ġbuffalo": 5435,
      "Ġdialect": 5436,
      "Ġmechan": 5437,
      ".).": 5438,
      "Ġindigenous": 5439,
      "iginal": 5440,
      "Ġburial": 5441,
      "Ġfat": 5442,
      "aling": 5443,
      "ĠProf": 5444,
      "uer": 5445,
      "Ġcaught": 5446,
      "Ġspl": 5447,
      "ĠInstitute": 5448,
      "Ġcircle": 5449,
      "ĠMod": 5450,
      "RANG": 5451,
      "ĠPolit": 5452,
      "Ġdidn": 5453,
      "Ġundert": 5454,
      "ĠApril": 5455,
      "ribute": 5456,
      "anges": 5457,
      "Ġfashion": 5458,
      "Ġcaste": 5459,
      "Ġfairly": 5460,
      "Ġneighbors": 5461,
      "Ġyouth": 5462,
      "class": 5463,
      "ĠEm": 5464,
      "rence": 5465,
      "Ġ159": 5466,
      "ĠPacific": 5467,
      "Ġproducts": 5468,
      "Ġoccurs": 5469,
      "ĠReg": 5470,
      "Ġpermanent": 5471,
      "ĠCompan": 5472,
      "Ġadvantage": 5473,
      "Ġ35": 5474,
      "Ġpriests": 5475,
      "Ġlie": 5476,
      "Ġaim": 5477,
      "123": 5478,
      "IGH": 5479,
      "ĠARRANG": 5480,
      "aste": 5481,
      "Ġbeat": 5482,
      "Ġunc": 5483,
      "Ġcompared": 5484,
      "ĠTod": 5485,
      "Ġclean": 5486,
      "Ġextra": 5487,
      "Ġbread": 5488,
      "Ġemployment": 5489,
      "part": 5490,
      "Ġmal": 5491,
      "Ġworship": 5492,
      "iner": 5493,
      "Ġunless": 5494,
      "Ġgift": 5495,
      "Ġfeeling": 5496,
      "Ġdeer": 5497,
      "ĠPers": 5498,
      "Ġdistant": 5499,
      "ĠAuthor": 5500,
      "Ġunivers": 5501,
      "Ġwriting": 5502,
      "Ġ533": 5503,
      "Ġarm": 5504,
      "Ġeds": 5505,
      "Ġ241": 5506,
      "Ġcommercial": 5507,
      "Ġpayment": 5508,
      "ius": 5509,
      "Ġbroken": 5510,
      "Ġrough": 5511,
      "ila": 5512,
      "ĠSouthern": 5513,
      "ĠAct": 5514,
      "Ġ1983": 5515,
      "reen": 5516,
      "Ġquickly": 5517,
      "Ġcarefully": 5518,
      "Ġutil": 5519,
      "ray": 5520,
      "Ġcalls": 5521,
      "Ġtypical": 5522,
      "Ġpregn": 5523,
      "ika": 5524,
      "Ġeffective": 5525,
      "ĠPaul": 5526,
      "VELOP": 5527,
      "Ġscholars": 5528,
      "ĠDEVELOP": 5529,
      "Ġtechniques": 5530,
      "ĠINITI": 5531,
      "ĠDEVELOPMENT": 5532,
      "Ġ622": 5533,
      "ĠChin": 5534,
      "ĠINITIATION": 5535,
      "aven": 5536,
      "arm": 5537,
      "Ġ70": 5538,
      "Ġimag": 5539,
      "Ġpositions": 5540,
      "velopment": 5541,
      "Ġwait": 5542,
      "uba": 5543,
      "elve": 5544,
      "Ġcommonly": 5545,
      "ĠSoviet": 5546,
      "Ġgarden": 5547,
      "olf": 5548,
      "Ġmiss": 5549,
      "'m": 5550,
      "ĠTrans": 5551,
      "ĠStudy": 5552,
      "asi": 5553,
      "Ġwhereas": 5554,
      "Ġ1990": 5555,
      "off": 5556,
      "Ġmanifest": 5557,
      "Ġoccupation": 5558,
      "Ġsugar": 5559,
      "Ġpor": 5560,
      "Ġdiscip": 5561,
      "Ġvessel": 5562,
      "ISION": 5563,
      "urt": 5564,
      "Ġmaintained": 5565,
      "ĠSecond": 5566,
      "ĠRO": 5567,
      "Ġpet": 5568,
      "Ġsumm": 5569,
      "ĠApp": 5570,
      "ĠFL": 5571,
      "amil": 5572,
      "ANG": 5573,
      "ĠHu": 5574,
      "Ġmissionaries": 5575,
      "ague": 5576,
      "Ġeasy": 5577,
      "OO": 5578,
      "ĠCanada": 5579,
      "Ġinteraction": 5580,
      "Ġdescribe": 5581,
      "Ġsought": 5582,
      "Ġselected": 5583,
      "agement": 5584,
      "Ġrefers": 5585,
      "ĠTor": 5586,
      "which": 5587,
      "Ġstress": 5588,
      "Ġdestroy": 5589,
      "Ġassistance": 5590,
      "Ġslave": 5591,
      "NI": 5592,
      "Ġpalm": 5593,
      "Ġ121": 5594,
      "ĠCarib": 5595,
      "ĠPla": 5596,
      "Ġspend": 5597,
      "Ġnine": 5598,
      "ĠVOC": 5599,
      "gments": 5600,
      "Ġ439": 5601,
      "Ġcoff": 5602,
      "Fig": 5603,
      "Ġpron": 5604,
      "Ġrite": 5605,
      "Ġgrain": 5606,
      "ĠETHNOP": 5607,
      "Ġpartly": 5608,
      "lem": 5609,
      "Ġholding": 5610,
      "Ġspok": 5611,
      "Ġargument": 5612,
      "Ġrelev": 5613,
      "Ġdescendants": 5614,
      "Ġ775": 5615,
      "Ġhole": 5616,
      "Ġroyal": 5617,
      "ĠEXT": 5618,
      "ĠLanguage": 5619,
      "Ġ1987": 5620,
      "itional": 5621,
      "Ġ563": 5622,
      "aded": 5623,
      "Ġconsult": 5624,
      "Ġ1956": 5625,
      "Ġcounter": 5626,
      "Ġidentified": 5627,
      "ĠMac": 5628,
      "Ġnecessarily": 5629,
      "bi": 5630,
      "Ġlib": 5631,
      ".),": 5632,
      "ĠRed": 5633,
      "Ġtrouble": 5634,
      "ĠCOL": 5635,
      "Ġpapers": 5636,
      "ĠKorean": 5637,
      "Ġdoctor": 5638,
      "Ġelect": 5639,
      "Ġsticks": 5640,
      "ĠWARFARE": 5641,
      "Ġcomparison": 5642,
      "ĠCoast": 5643,
      "Ġcontains": 5644,
      "Ġgreatly": 5645,
      "Ġtrading": 5646,
      "Ġprinciples": 5647,
      "ĠTa": 5648,
      "Ġadministrative": 5649,
      "Ġwidely": 5650,
      "Ġsquare": 5651,
      "wi": 5652,
      "Ġfeature": 5653,
      "Ġcharge": 5654,
      "win": 5655,
      "Ġsubjects": 5656,
      "ĠMountain": 5657,
      "Ġnineteenth": 5658,
      "jo": 5659,
      "Ġfurn": 5660,
      "ĠAS": 5661,
      "Ġsuperior": 5662,
      "wor": 5663,
      "rog": 5664,
      "ĠMOD": 5665,
      "ager": 5666,
      "ni": 5667,
      "ingly": 5668,
      "ints": 5669,
      "Ġpopulations": 5670,
      "TURES": 5671,
      "Ġreader": 5672,
      "Ġspiritual": 5673,
      "Ġ1955": 5674,
      "Ġprotection": 5675,
      "isp": 5676,
      "ĠNative": 5677,
      "Ġattitudes": 5678,
      "NE": 5679,
      "ĠIroqu": 5680,
      "cember": 5681,
      "ici": 5682,
      "Ġfla": 5683,
      "Ġhusbands": 5684,
      "Ġpromin": 5685,
      "Ġchosen": 5686,
      "Ġmanufact": 5687,
      "ĠCompany": 5688,
      "Ġattempts": 5689,
      "Ġgreatest": 5690,
      "Ġult": 5691,
      "Ġ1985": 5692,
      "arity": 5693,
      "Ġbottom": 5694,
      "Ġfilled": 5695,
      "ĠSen": 5696,
      "Ġlad": 5697,
      "Ġcompan": 5698,
      "Ġmerch": 5699,
      "Ġscience": 5700,
      "Ġwrote": 5701,
      "Ġ1986": 5702,
      "80": 5703,
      "aska": 5704,
      "ĠFIS": 5705,
      "aki": 5706,
      "omo": 5707,
      "ĠSchool": 5708,
      "Ġacts": 5709,
      "Ġ795": 5710,
      "Ġdrinking": 5711,
      "Ġbackground": 5712,
      "Ġwrong": 5713,
      "estock": 5714,
      "Ġpottery": 5715,
      "uri": 5716,
      "Ġ128": 5717,
      "Ġreach": 5718,
      "Ġobvious": 5719,
      "Ġseek": 5720,
      "Ġqui": 5721,
      "kh": 5722,
      "ĠBAS": 5723,
      "agle": 5724,
      "Ġpret": 5725,
      "Ġstrang": 5726,
      ",âĢĻ": 5727,
      "UNC": 5728,
      "Ġsens": 5729,
      "Ġindustrial": 5730,
      "Ġrent": 5731,
      "Ġclub": 5732,
      "ĠPAST": 5733,
      "Ġgreen": 5734,
      "LES": 5735,
      "Ġhunt": 5736,
      "Ġka": 5737,
      "Ġmour": 5738,
      "Ġassign": 5739,
      "Ġham": 5740,
      "imum": 5741,
      "Ġfinished": 5742,
      "Ġ1959": 5743,
      "cons": 5744,
      "ĠDEAD": 5745,
      "Ġbones": 5746,
      "After": 5747,
      "ĠTHEORY": 5748,
      "Ġreality": 5749,
      "Ġunable": 5750,
      "'d": 5751,
      "Ġwhatever": 5752,
      "Ġworn": 5753,
      "ĠCULT": 5754,
      "Ġtendency": 5755,
      "Ġghost": 5756,
      "ains": 5757,
      "adian": 5758,
      "ĠPASTORAL": 5759,
      "eks": 5760,
      "Ġbag": 5761,
      "ĠDistrict": 5762,
      "omas": 5763,
      "ROL": 5764,
      "Ġpeasants": 5765,
      "Ġfaith": 5766,
      "ĠDon": 5767,
      "Ġadequ": 5768,
      "Ġresident": 5769,
      "Ġcompany": 5770,
      "Ġfourth": 5771,
      "Ġstructures": 5772,
      "ĠMiddle": 5773,
      "cloth": 5774,
      "roc": 5775,
      "bl": 5776,
      "Ġrefused": 5777,
      "ĠPop": 5778,
      "evertheless": 5779,
      "Ġedge": 5780,
      "Ġ32": 5781,
      "ĠIndeed": 5782,
      "ĠTERMIN": 5783,
      "Ġintended": 5784,
      "ĠLat": 5785,
      "To": 5786,
      "right": 5787,
      "Ind": 5788,
      "Ġlargest": 5789,
      "ovember": 5790,
      "Ġparticipation": 5791,
      "ĠTibet": 5792,
      "ricts": 5793,
      "laced": 5794,
      "Ġsets": 5795,
      "Ġslightly": 5796,
      "ĠPH": 5797,
      "ĠBa": 5798,
      "Ġwitness": 5799,
      "ĠOctober": 5800,
      "do": 5801,
      "Ġhonor": 5802,
      "Ġgar": 5803,
      "ĠRec": 5804,
      "ĠMel": 5805,
      "pse": 5806,
      "Ġmark": 5807,
      "Ġexcellent": 5808,
      "Ġacquired": 5809,
      "ora": 5810,
      "ĠAlso": 5811,
      "Ġequival": 5812,
      "Ġscale": 5813,
      "ĠTERMINOLOGY": 5814,
      "iverse": 5815,
      "ĠFISHING": 5816,
      "zing": 5817,
      "ander": 5818,
      "Ġfacts": 5819,
      "ĠArmen": 5820,
      "Ġ668": 5821,
      "cf": 5822,
      "Ġroot": 5823,
      "uits": 5824,
      "Ġagreed": 5825,
      "Ġhill": 5826,
      "Ġpolitics": 5827,
      "Ġnormal": 5828,
      "ĠMas": 5829,
      "field": 5830,
      "Ġremaining": 5831,
      "ĠARCHI": 5832,
      "ĠAsia": 5833,
      "ĠWhere": 5834,
      "UD": 5835,
      "ati": 5836,
      "isted": 5837,
      "Ġfifty": 5838,
      "KE": 5839,
      "Ġ1954": 5840,
      "Ġfur": 5841,
      "Ġsect": 5842,
      "ĠETHOS": 5843,
      "Ġoffering": 5844,
      "occ": 5845,
      "ĠAustral": 5846,
      "ĠNy": 5847,
      "ifying": 5848,
      "icle": 5849,
      "Ġcities": 5850,
      "Ġ1958": 5851,
      "ĠNUP": 5852,
      "Ġmoon": 5853,
      "pring": 5854,
      "Ġsupported": 5855,
      "ania": 5856,
      "Ġstood": 5857,
      "HIC": 5858,
      "TIALS": 5859,
      "ĠApache": 5860,
      "ĠNUPTIALS": 5861,
      "Ġprecise": 5862,
      "CULTURE": 5863,
      "Ġ1957": 5864,
      "ĠDavid": 5865,
      "Ġpa": 5866,
      "ĠIslands": 5867,
      "ĠAGRICULTURE": 5868,
      "RU": 5869,
      "Ġclaimed": 5870,
      "Ġdam": 5871,
      "ĠHuman": 5872,
      "Ġdescribes": 5873,
      "ples": 5874,
      "Ġspoke": 5875,
      "Ġlear": 5876,
      "Ġ1984": 5877,
      "Ġ1953": 5878,
      "ensions": 5879,
      "Ã£": 5880,
      "ucle": 5881,
      "ĠFrancis": 5882,
      "Ġprohib": 5883,
      "Ġcorrel": 5884,
      "iring": 5885,
      "95": 5886,
      "Ġboat": 5887,
      "Ġlaws": 5888,
      "rupt": 5889,
      "Ġ433": 5890,
      "ĠRich": 5891,
      "mod": 5892,
      "ollow": 5893,
      "ĠAk": 5894,
      "aba": 5895,
      "ĠTonga": 5896,
      "Ġfreed": 5897,
      "Ġaccur": 5898,
      "Ġthick": 5899,
      "antly": 5900,
      "Ġcrow": 5901,
      "Ġinvolve": 5902,
      "No": 5903,
      "ĠKe": 5904,
      "ested": 5905,
      "Ġdespite": 5906,
      "essor": 5907,
      "Ġdifficulty": 5908,
      "Ġfinds": 5909,
      "ĠHI": 5910,
      "Ġadults": 5911,
      "Ġfeathers": 5912,
      "Ġspot": 5913,
      "Ġarch": 5914,
      "Ġfemales": 5915,
      "Ġhardly": 5916,
      "Ġfixed": 5917,
      "okee": 5918,
      "Ġwidow": 5919,
      "ĠCONTROL": 5920,
      "Ġinstances": 5921,
      "oan": 5922,
      "ANC": 5923,
      "TOR": 5924,
      "ĠFLORA": 5925,
      "Ġmovements": 5926,
      "key": 5927,
      "Ġcenturies": 5928,
      "iveness": 5929,
      "Ġgetting": 5930,
      "Ġcontribution": 5931,
      "Ġsequ": 5932,
      "ĠDIVISION": 5933,
      "ĠUr": 5934,
      "hu": 5935,
      "167": 5936,
      "Ġentr": 5937,
      "ĠSeptember": 5938,
      "Ġhelped": 5939,
      "Ġirrig": 5940,
      "Ġshowed": 5941,
      "Ġresemb": 5942,
      "Ġbands": 5943,
      "ĠJanuary": 5944,
      "241": 5945,
      "ĠOk": 5946,
      "Ġ1988": 5947,
      "SOC": 5948,
      "Ġsetting": 5949,
      "Ġtwelve": 5950,
      "Ġlooking": 5951,
      "Ġpoly": 5952,
      "Ġjoined": 5953,
      "ĠMet": 5954,
      "Ġburied": 5955,
      "Ġduties": 5956,
      "ori": 5957,
      "using": 5958,
      "Ġchick": 5959,
      "Ġroots": 5960,
      "attered": 5961,
      "ĠProv": 5962,
      "ĠFre": 5963,
      "Ġwhites": 5964,
      "What": 5965,
      "ĠMad": 5966,
      "Ġcritical": 5967,
      "GAL": 5968,
      "Ġdans": 5969,
      "ante": 5970,
      "Ġconsideration": 5971,
      "Ġstatements": 5972,
      "Ġpossibility": 5973,
      "Ġtransfer": 5974,
      "ouble": 5975,
      "ounced": 5976,
      "ĠFeb": 5977,
      "ĠFe": 5978,
      "OID": 5979,
      "ellig": 5980,
      "ĠGARB": 5981,
      "Ġrunning": 5982,
      "ĠLab": 5983,
      "ĠNORMAL": 5984,
      "Ġpsychological": 5985,
      "Ġagree": 5986,
      "lat": 5987,
      "ĠTABOO": 5988,
      "ĠAVOID": 5989,
      "But": 5990,
      "ĠVillage": 5991,
      "ques": 5992,
      "ĠAVOIDANCE": 5993,
      "Ã§": 5994,
      "aca": 5995,
      "Ġinheritance": 5996,
      "irs": 5997,
      "Ġregional": 5998,
      "Ġ754": 5999,
      "Ġbodies": 6000,
      "Ġunus": 6001,
      "Ġcocon": 6002,
      "ĠRelig": 6003,
      "ipp": 6004,
      "ĠCommission": 6005,
      "sec": 6006,
      "Ġancestor": 6007,
      "ĠTOW": 6008,
      "Ġjoin": 6009,
      "Ġassumed": 6010,
      "Ġwalls": 6011,
      "Ġdominant": 6012,
      "bles": 6013,
      "Ġpossibly": 6014,
      "ĠHigh": 6015,
      "igration": 6016,
      "Ġpainted": 6017,
      "ĠTra": 6018,
      "Ġtaught": 6019,
      "Ġexhib": 6020,
      "Ġcomposed": 6021,
      "Ġspite": 6022,
      "Ġparallel": 6023,
      "Ã»": 6024,
      "ublic": 6025,
      "Ġmap": 6026,
      "ĠCOLLEC": 6027,
      "POSI": 6028,
      "Ġom": 6029,
      "lets": 6030,
      "Ġdependent": 6031,
      "ror": 6032,
      "Ġbelonging": 6033,
      "Ġhighest": 6034,
      "otes": 6035,
      "ĠArch": 6036,
      "Ġgun": 6037,
      "Ġdisplay": 6038,
      "ero": 6039,
      "Ġactions": 6040,
      "aken": 6041,
      "...": 6042,
      "Ġcapac": 6043,
      "ĠLet": 6044,
      "Ġfresh": 6045,
      "aph": 6046,
      "Ġapproximately": 6047,
      "Ġperspective": 6048,
      "Ġfuneral": 6049,
      "Ġneighborhood": 6050,
      "Ġmedium": 6051,
      "Ġlivestock": 6052,
      "pet": 6053,
      "cont": 6054,
      "ĠSoci": 6055,
      "Ġstands": 6056,
      "Ġlegend": 6057,
      "adic": 6058,
      "ĠCEREAL": 6059,
      "Ġdiscovered": 6060,
      "Ġeye": 6061,
      "ami": 6062,
      "Ġpecul": 6063,
      "Ġyellow": 6064,
      "Ġya": 6065,
      "Ġfathers": 6066,
      "Ġhence": 6067,
      "Ġopposition": 6068,
      "ĠProt": 6069,
      "ĠBul": 6070,
      "ĠCherokee": 6071,
      "Ġauthorities": 6072,
      "Ġregarding": 6073,
      "SOCIOLOGY": 6074,
      "Ġlif": 6075,
      "ĠETHNOSOCIOLOGY": 6076,
      "ading": 6077,
      "Ġknows": 6078,
      "ĠMem": 6079,
      "Ġcauses": 6080,
      "Ġcooking": 6081,
      "Ġbone": 6082,
      "Ġren": 6083,
      "olute": 6084,
      "Ġjourney": 6085,
      "Ġ1989": 6086,
      "Ġ1952": 6087,
      "Ġpour": 6088,
      "Ġforty": 6089,
      "Ġpressure": 6090,
      "ĠUnder": 6091,
      "ducing": 6092,
      "Ġdemands": 6093,
      "ras": 6094,
      "Ġreject": 6095,
      "apa": 6096,
      "Ġconclusion": 6097,
      "Ġtit": 6098,
      "Author": 6099,
      "Ġvariation": 6100,
      "bert": 6101,
      "ifically": 6102,
      "Ġ1951": 6103,
      "Ġblan": 6104,
      "Ġorganizations": 6105,
      "Ġunknown": 6106,
      "ĠGar": 6107,
      "Ġwond": 6108,
      "Ġcommunal": 6109,
      "Ġaccord": 6110,
      "ENC": 6111,
      "Ġinfant": 6112,
      "ĠPoly": 6113,
      "Ġsud": 6114,
      "Ġabor": 6115,
      "Ġsearch": 6116,
      "mat": 6117,
      "inces": 6118,
      "ĠAre": 6119,
      "Ġ186": 6120,
      "ĠTERRI": 6121,
      "fts": 6122,
      "MAR": 6123,
      "div": 6124,
      "uru": 6125,
      "Ġengaged": 6126,
      "time": 6127,
      "Ġbecoming": 6128,
      "Ġjoint": 6129,
      "entions": 6130,
      "oured": 6131,
      "Ġcustomary": 6132,
      "Ġmostly": 6133,
      "Ġsituations": 6134,
      "Ġsevere": 6135,
      "Ġstraight": 6136,
      "Ġ574": 6137,
      "ĠTERRITOR": 6138,
      "Ġinj": 6139,
      "ĠAff": 6140,
      "Ġchall": 6141,
      "ette": 6142,
      "ĠTERRITORIAL": 6143,
      "isms": 6144,
      "Ġmaize": 6145,
      "Ã©e": 6146,
      "----": 6147,
      "Ġmix": 6148,
      "Ġthousand": 6149,
      "Ġcompound": 6150,
      "Ġobligations": 6151,
      "Ġborrow": 6152,
      "ĠNiger": 6153,
      "Ġhop": 6154,
      "GATION": 6155,
      "Ġmist": 6156,
      "Ġwal": 6157,
      "ĠGl": 6158,
      "Ġax": 6159,
      "ĠCultural": 6160,
      "iki": 6161,
      "jib": 6162,
      "Ġimage": 6163,
      "Ġtas": 6164,
      "Ġcam": 6165,
      "Ġpersonality": 6166,
      "ĠTurk": 6167,
      "rary": 6168,
      "Ġownership": 6169,
      "Ġwedding": 6170,
      "hy": 6171,
      "ĠMODE": 6172,
      "Ġspecim": 6173,
      "ns": 6174,
      "married": 6175,
      "Ġ45": 6176,
      "Ġincorpor": 6177,
      "Ġjobs": 6178,
      "Ġ1949": 6179,
      "Ġstrongly": 6180,
      "ĠCap": 6181,
      "ĠDevelopment": 6182,
      "Ġ764": 6183,
      "ĠPUB": 6184,
      "ĠNovember": 6185,
      "Ġfundamental": 6186,
      "STRUC": 6187,
      "ĠDecember": 6188,
      "Ġdig": 6189,
      "Ġsitting": 6190,
      "Ġ755": 6191,
      "Ġsnow": 6192,
      "YG": 6193,
      "Ġbooks": 6194,
      "ston": 6195,
      "773": 6196,
      "ĠOx": 6197,
      "uka": 6198,
      "554": 6199,
      "ĠPUBERTY": 6200,
      "oms": 6201,
      "ellect": 6202,
      "oked": 6203,
      "Ġdefinition": 6204,
      "ARCHY": 6205,
      "ĠHIER": 6206,
      "ĠUs": 6207,
      "light": 6208,
      "Ġgathering": 6209,
      "ĠHIERARCHY": 6210,
      "Ġversion": 6211,
      "STRUCTION": 6212,
      "Ġ67": 6213,
      "Ġspr": 6214,
      "war": 6215,
      "They": 6216,
      "Ġtent": 6217,
      "ĠKa": 6218,
      "Ġboundaries": 6219,
      "Ġphil": 6220,
      "ĠNevertheless": 6221,
      "Ġpurs": 6222,
      "osoph": 6223,
      "irth": 6224,
      "Ġblanket": 6225,
      "Ġplus": 6226,
      "ito": 6227,
      "Ġ34": 6228,
      "Ġclay": 6229,
      "ABUL": 6230,
      "Ġpleas": 6231,
      "ĠOur": 6232,
      "Ġq": 6233,
      "Ġprivile": 6234,
      "Ġdried": 6235,
      "ĠVOCABUL": 6236,
      "ĠWA": 6237,
      "These": 6238,
      "ĠVOCABULARY": 6239,
      "Ġconscious": 6240,
      "Ġassume": 6241,
      "Ġfirm": 6242,
      "Ġcorpor": 6243,
      "year": 6244,
      "Ġarranged": 6245,
      "Ġhunter": 6246,
      "Ġcatch": 6247,
      "Ġassociations": 6248,
      "Ġwilling": 6249,
      "ĠWil": 6250,
      "Ġblue": 6251,
      "standing": 6252,
      "Ġbul": 6253,
      "ĠMag": 6254,
      "ĠMission": 6255,
      "ĠColumb": 6256,
      "orough": 6257,
      "Ġaccompl": 6258,
      "Ġblow": 6259,
      "Ġplanted": 6260,
      "ATURE": 6261,
      "Ġdealing": 6262,
      "Ġens": 6263,
      "Ġbeautiful": 6264,
      "Ġstudied": 6265,
      "ean": 6266,
      "Ġabund": 6267,
      "ĠANIMAL": 6268,
      "Ġsalt": 6269,
      "verse": 6270,
      "Ġimprove": 6271,
      "ETH": 6272,
      "fort": 6273,
      "ĠFigure": 6274,
      "ĠLife": 6275,
      "aks": 6276,
      "Ġdangerous": 6277,
      "Ġtill": 6278,
      "gon": 6279,
      "MENTS": 6280,
      "Ġpul": 6281,
      "ĠScience": 6282,
      "Ġhy": 6283,
      "Ġnucle": 6284,
      "Ġbeer": 6285,
      "ĠAz": 6286,
      "uscript": 6287,
      "Ġconducted": 6288,
      "ĠIm": 6289,
      "Ġsky": 6290,
      "fall": 6291,
      "Ġsmoke": 6292,
      "Ġsche": 6293,
      "Ġcycle": 6294,
      "TA": 6295,
      "Ġobservations": 6296,
      "Ġexec": 6297,
      "ĠBefore": 6298,
      "ught": 6299,
      "ograp": 6300,
      "184": 6301,
      "ĠIll": 6302,
      "ATE": 6303,
      "da": 6304,
      "ĠAriz": 6305,
      "Äĩ": 6306,
      "Ġinitial": 6307,
      "umes": 6308,
      "Ġfisher": 6309,
      "ether": 6310,
      "Ġapprec": 6311,
      "Ġcure": 6312,
      "Ġtools": 6313,
      "ortunately": 6314,
      "ĠREP": 6315,
      "Ġvoice": 6316,
      "Ġlodge": 6317,
      "ruary": 6318,
      "Ġscientific": 6319,
      "Ġsweet": 6320,
      "ĠINDUST": 6321,
      "ĠFore": 6322,
      "Ġunlike": 6323,
      "Ġ36": 6324,
      "ris": 6325,
      "ti": 6326,
      "Ġphr": 6327,
      "Ġ829": 6328,
      "Ġ784": 6329,
      "ĠBureau": 6330,
      "five": 6331,
      "ĠTu": 6332,
      "Ġancestral": 6333,
      "Ġherds": 6334,
      "Ġpractical": 6335,
      "Ġlineages": 6336,
      "TON": 6337,
      "Ġacknow": 6338,
      "Ġgrew": 6339,
      "Ġsecondary": 6340,
      "aves": 6341,
      "uni": 6342,
      "erent": 6343,
      "Ġsickness": 6344,
      "Ġboard": 6345,
      "kes": 6346,
      "zen": 6347,
      "Ġdivorce": 6348,
      "Ġbibli": 6349,
      "Ġ726": 6350,
      "ĠHol": 6351,
      "ibilities": 6352,
      "Ġchanging": 6353,
      "Ġbehavi": 6354,
      "Ġtrying": 6355,
      "Ġreduced": 6356,
      "Ġ184": 6357,
      "Ġappointed": 6358,
      "astic": 6359,
      "Ġaud": 6360,
      "ratic": 6361,
      "Be": 6362,
      "Ġfertility": 6363,
      "berg": 6364,
      "Ġwarriors": 6365,
      "een": 6366,
      "Ġconst": 6367,
      "Ġsymbols": 6368,
      "Ġsharp": 6369,
      "Ġfestival": 6370,
      "Ġprovince": 6371,
      "HER": 6372,
      "Ġbranch": 6373,
      "ĠLEIS": 6374,
      "ĠLEISURE": 6375,
      "Ġdistricts": 6376,
      "UIS": 6377,
      "ĠPres": 6378,
      "Ġofferings": 6379,
      "Ġdirected": 6380,
      "Ġstim": 6381,
      "ĠIroquois": 6382,
      "ĠUt": 6383,
      "Ġfailed": 6384,
      "Ġplain": 6385,
      "Ġexisted": 6386,
      "iana": 6387,
      "Ġdogs": 6388,
      "5310": 6389,
      "everal": 6390,
      "Ġnotion": 6391,
      "parent": 6392,
      "ĠBrazil": 6393,
      "ession": 6394,
      "Ġenterpr": 6395,
      "oking": 6396,
      "Ġinfer": 6397,
      "Ġtraits": 6398,
      "Ġcollective": 6399,
      "aternal": 6400,
      "Ġinterc": 6401,
      "Ġcompleted": 6402,
      "Ġreb": 6403,
      "Ġsiblings": 6404,
      "Ġdiag": 6405,
      "Ġeventually": 6406,
      "ĠLong": 6407,
      "Ġmyself": 6408,
      "POSITION": 6409,
      "Ġpositive": 6410,
      "Ġcooked": 6411,
      "ĠTRAVEL": 6412,
      "ographs": 6413,
      "Ġho": 6414,
      "Ġweeks": 6415,
      "Ġadjust": 6416,
      "ĠWE": 6417,
      "ĠHen": 6418,
      "Ġforward": 6419,
      "ĠCOMPOSITION": 6420,
      "rees": 6421,
      "ĠSEXUAL": 6422,
      "Ġstring": 6423,
      "199": 6424,
      "All": 6425,
      "Ġrend": 6426,
      "Ġcountries": 6427,
      "Ġrefuge": 6428,
      "ĠSimil": 6429,
      "ĠField": 6430,
      "137": 6431,
      "Ġng": 6432,
      "ĠGrand": 6433,
      "ldom": 6434,
      "ĠThomas": 6435,
      "Ġexplicit": 6436,
      "Ġau": 6437,
      "ewise": 6438,
      "Ġcompr": 6439,
      "Ġvalid": 6440,
      "Ġpolice": 6441,
      "ĠLu": 6442,
      "Ġbank": 6443,
      "Ġdanger": 6444,
      "ÉĶ": 6445,
      "ĠARRANGING": 6446,
      "ĠXX": 6447,
      "Ġexists": 6448,
      "Ġvan": 6449,
      "Ġsudden": 6450,
      "book": 6451,
      "ĠJes": 6452,
      "Ġkinsmen": 6453,
      "ception": 6454,
      "Ġbranches": 6455,
      "Ġexperiences": 6456,
      "ĠAGAIN": 6457,
      "YC": 6458,
      "Ġdistinguished": 6459,
      "ĠGRA": 6460,
      "ĠAGAINST": 6461,
      "Ġfoods": 6462,
      "Ġwitchcraft": 6463,
      "Ġdouble": 6464,
      "ĠSTRUCTURES": 6465,
      "ĠTar": 6466,
      "hand": 6467,
      "Ġlimit": 6468,
      "Ġfailure": 6469,
      "ĠInternational": 6470,
      "Ġmach": 6471,
      "Ġpermitted": 6472,
      "Ġ771": 6473,
      "Ġdies": 6474,
      "HOOD": 6475,
      "Ġreform": 6476,
      "iro": 6477,
      "Ġperfect": 6478,
      "Ġagreement": 6479,
      "Ġsale": 6480,
      "Ġthinking": 6481,
      "ĠTer": 6482,
      "reams": 6483,
      "Ġframework": 6484,
      "Ġlegs": 6485,
      "Ġpeculiar": 6486,
      "Ġaffected": 6487,
      "inu": 6488,
      "ci": 6489,
      "ĠMart": 6490,
      "Ġabsolute": 6491,
      "Ġstriking": 6492,
      "ĠCHILDHOOD": 6493,
      "iders": 6494,
      "Ġspoken": 6495,
      "MISSION": 6496,
      "Ġreading": 6497,
      "Ġ171": 6498,
      "Ġabst": 6499,
      "iang": 6500,
      "Ġbought": 6501,
      "Ġguests": 6502,
      "Ġchiefly": 6503,
      "ails": 6504,
      "ĠManch": 6505,
      "ĠTs": 6506,
      "Ġ575": 6507,
      "ĠHind": 6508,
      "Ġkey": 6509,
      "ĠAF": 6510,
      "See": 6511,
      "acts": 6512,
      "ancial": 6513,
      "Ġfarms": 6514,
      "Ġbamb": 6515,
      "olit": 6516,
      "Ġinqu": 6517,
      "Ġmeetings": 6518,
      "agu": 6519,
      "ithic": 6520,
      "ĠPalest": 6521,
      "ĠCrow": 6522,
      "Ġcontinues": 6523,
      "Ġintellect": 6524,
      "enge": 6525,
      "Ġweight": 6526,
      "ande": 6527,
      "ĠParis": 6528,
      "ĠLITERATURE": 6529,
      "Ġfit": 6530,
      "uls": 6531,
      "**": 6532,
      "Ġtranslation": 6533,
      "Ġhunters": 6534,
      "can": 6535,
      "usa": 6536,
      "Ġmultip": 6537,
      "Ġbless": 6538,
      "road": 6539,
      "Ġ1938": 6540,
      "Ġmoving": 6541,
      "ĠTRANSMISSION": 6542,
      "ĠREPRES": 6543,
      "Ġtour": 6544,
      "Ġexpand": 6545,
      "ĠServ": 6546,
      "ĠMos": 6547,
      "Ġarrows": 6548,
      "Ġforb": 6549,
      "Ġopening": 6550,
      "88": 6551,
      "Ġlas": 6552,
      "Ġdiet": 6553,
      "Ġmutual": 6554,
      "ĠWATER": 6555,
      "illing": 6556,
      "ĠREPRESENT": 6557,
      "ersonal": 6558,
      "chen": 6559,
      "ĠCharles": 6560,
      "Ġalternative": 6561,
      "EASE": 6562,
      "Ġrestrict": 6563,
      "Ġdifficulties": 6564,
      "Ġdistributed": 6565,
      "aked": 6566,
      "ĠINS": 6567,
      "Ġneighbour": 6568,
      "ĠKw": 6569,
      "ears": 6570,
      "Ġseldom": 6571,
      "ĠREPRESENTATIVE": 6572,
      "Ġbrings": 6573,
      "Ġlearning": 6574,
      "Ġcas": 6575,
      "Ġthorough": 6576,
      "Ġprocedure": 6577,
      "ĠHistorical": 6578,
      "Ġaggress": 6579,
      "uce": 6580,
      "ĠMont": 6581,
      "Ġseed": 6582,
      "Ġimpro": 6583,
      "Ġarrival": 6584,
      "Ġlegit": 6585,
      "herent": 6586,
      "Ġpages": 6587,
      "ĠDISEASE": 6588,
      "Ġgrandfather": 6589,
      "gl": 6590,
      "ĠTex": 6591,
      "Ġopportunities": 6592,
      "Ġ1936": 6593,
      "New": 6594,
      "Ġmaternal": 6595,
      "Ġoperation": 6596,
      "Ġteachers": 6597,
      "Ġselect": 6598,
      "rehens": 6599,
      "ĠOjib": 6600,
      "ĠRECON": 6601,
      "place": 6602,
      "Ġarmy": 6603,
      "Ġrein": 6604,
      "Ġcareful": 6605,
      "Ġunique": 6606,
      "ĠChe": 6607,
      "ville": 6608,
      "ĠEuropeans": 6609,
      "je": 6610,
      "ĠRECONSTRUCTION": 6611,
      "ĠJUD": 6612,
      "My": 6613,
      "olo": 6614,
      "Ġgender": 6615,
      "olved": 6616,
      "Ġprofessional": 6617,
      "akers": 6618,
      "ĠEthnology": 6619,
      "ĠCOLLECTING": 6620,
      "Ġanthropologist": 6621,
      "omb": 6622,
      "ĠCYC": 6623,
      "Ġcompon": 6624,
      "enses": 6625,
      "Ġrivers": 6626,
      "231": 6627,
      "Ã¨re": 6628,
      "akh": 6629,
      "uv": 6630,
      "Äį": 6631,
      "ĠDEM": 6632,
      "ĠAmish": 6633,
      "rate": 6634,
      "Ġheight": 6635,
      "Ġindependence": 6636,
      "ounded": 6637,
      "Ġinterv": 6638,
      "ĠEskimo": 6639,
      "ĠYoung": 6640,
      "HERIT": 6641,
      "ĠWal": 6642,
      "Ġcamps": 6643,
      "HERITANCE": 6644,
      "ICIAL": 6645,
      "Ġshel": 6646,
      "ĠJUDICIAL": 6647,
      "CC": 6648,
      "ĠINHERITANCE": 6649,
      "Ã©t": 6650,
      "IR": 6651,
      "Ġduty": 6652,
      "Ġ1948": 6653,
      "Ġleaf": 6654,
      "Ġlake": 6655,
      "Ġtro": 6656,
      "aver": 6657,
      "iti": 6658,
      "Ġreferences": 6659,
      "AYS": 6660,
      "Ġexcav": 6661,
      "Ġgrounds": 6662,
      "ĠOxford": 6663,
      "point": 6664,
      "ergy": 6665,
      "igins": 6666,
      "Ġcogn": 6667,
      "Ġgradually": 6668,
      "Ġ187": 6669,
      "Ġseparated": 6670,
      "Ġconsumption": 6671,
      "Ġinterior": 6672,
      "ETEOR": 6673,
      "Ġbond": 6674,
      "ĠETHNOM": 6675,
      "EALTH": 6676,
      "pell": 6677,
      "Ġtells": 6678,
      "ETEOROLOGY": 6679,
      "ĠETHNOMETEOROLOGY": 6680,
      "Ġskill": 6681,
      "gypt": 6682,
      "Ġcitiz": 6683,
      "ĠLapp": 6684,
      "ĠGRO": 6685,
      "Ġanx": 6686,
      "Ġfifteen": 6687,
      "ĠSub": 6688,
      "ĠArizona": 6689,
      "Ġ133": 6690,
      "ĠOnce": 6691,
      "Ġstream": 6692,
      "ĠPREPARATION": 6693,
      "ganization": 6694,
      "Ġchron": 6695,
      "Ġ179": 6696,
      "Ġopened": 6697,
      "onial": 6698,
      "COH": 6699,
      "cribed": 6700,
      "osh": 6701,
      "Ġdoll": 6702,
      "ĠFurthermore": 6703,
      "Ġ182": 6704,
      "Ġprehist": 6705,
      "Ġsegment": 6706,
      "Ġpunishment": 6707,
      "Ġnegot": 6708,
      "rad": 6709,
      "stead": 6710,
      "Although": 6711,
      "Ġmax": 6712,
      "ĠHmong": 6713,
      "Ġgrandmother": 6714,
      "Ġremember": 6715,
      "ĠLEGAL": 6716,
      "ĠLib": 6717,
      "Ġpadd": 6718,
      "âĢ¦.": 6719,
      "133": 6720,
      "ĠDiv": 6721,
      "ĠGeneral": 6722,
      "ĠLouis": 6723,
      "COHOLI": 6724,
      "BAT": 6725,
      "ael": 6726,
      "Ġunion": 6727,
      "Ġconj": 6728,
      "ĠPerhaps": 6729,
      "Ġexisting": 6730,
      "ĠFebruary": 6731,
      "Ġsi": 6732,
      "Ġball": 6733,
      "ĠCons": 6734,
      "AVI": 6735,
      "Ġessentially": 6736,
      "Ġseeds": 6737,
      "TIGATION": 6738,
      "Ġpreparation": 6739,
      "ĠTrad": 6740,
      "Ġcensus": 6741,
      "Ġfinancial": 6742,
      "ifies": 6743,
      "look": 6744,
      "COMMUNITY": 6745,
      "ĠMil": 6746,
      "Ġteacher": 6747,
      "avan": 6748,
      "ĠBU": 6749,
      "Ġobservation": 6750,
      "IEN": 6751,
      "Ġborder": 6752,
      "And": 6753,
      "ĠProfessor": 6754,
      "yl": 6755,
      "Ġattempted": 6756,
      "Ġscattered": 6757,
      "amans": 6758,
      "Ġrequires": 6759,
      "ĠSanta": 6760,
      "Ġformation": 6761,
      "Ġ]": 6762,
      "ĠTai": 6763,
      "ĠCOMBAT": 6764,
      "ĠCf": 6765,
      "Ġcandid": 6766,
      "ocation": 6767,
      "ÉĻ": 6768,
      "Ġviews": 6769,
      "Ġdetermine": 6770,
      "ourt": 6771,
      "Ġwage": 6772,
      "uku": 6773,
      "Ġ1920": 6774,
      "Ġ769": 6775,
      "ĠMrs": 6776,
      "ĠFamily": 6777,
      "Ġnearby": 6778,
      "Ġcord": 6779,
      "Ġsubsequent": 6780,
      "Ġpoison": 6781,
      "zed": 6782,
      "Ġtruth": 6783,
      "col": 6784,
      "Ġ881": 6785,
      "ĠCor": 6786,
      "Ġincreasingly": 6787,
      "ĠDEMAND": 6788,
      "Ġideology": 6789,
      "Ġaccult": 6790,
      "Ġpage": 6791,
      "Ġ42": 6792,
      "ico": 6793,
      "Ġcited": 6794,
      "Ġofficers": 6795,
      "anes": 6796,
      "ĠIV": 6797,
      "ĠPARTIES": 6798,
      "Ġweather": 6799,
      "Ġbaskets": 6800,
      "ĠThree": 6801,
      "ĠMaya": 6802,
      "Ġkilling": 6803,
      "Ġperce": 6804,
      "ĠASCE": 6805,
      "ricted": 6806,
      "Ġgets": 6807,
      "ĠLos": 6808,
      "Ġlit": 6809,
      "Ġsurrounding": 6810,
      "ĠThough": 6811,
      "Ġweap": 6812,
      "Ġimper": 6813,
      "Ġ342": 6814,
      "Ġpigs": 6815,
      "ienced": 6816,
      "Ġmodels": 6817,
      "ateral": 6818,
      "Ġevalu": 6819,
      "III": 6820,
      "Ġcanoes": 6821,
      "Ġconstitute": 6822,
      "Ġcharacterized": 6823,
      "ĠSn": 6824,
      "Ġconven": 6825,
      "mo": 6826,
      "Ġshot": 6827,
      "Ġacres": 6828,
      "Ġpossessed": 6829,
      "Ġtasks": 6830,
      "oni": 6831,
      "SS": 6832,
      "Ġreven": 6833,
      "Ġkeeping": 6834,
      "Ġwants": 6835,
      "Ġcompetition": 6836,
      "ky": 6837,
      "Ġequivalent": 6838,
      "Ġselection": 6839,
      "Ġintellig": 6840,
      "Ġ462": 6841,
      "So": 6842,
      "ÃŃa": 6843,
      "olid": 6844,
      "Ġbreast": 6845,
      "Ġsees": 6846,
      "Ġpresum": 6847,
      "Ġpack": 6848,
      "Ġded": 6849,
      "Ġpaint": 6850,
      "Ġfet": 6851,
      "Ġti": 6852,
      "Ġprominent": 6853,
      "ĠCLI": 6854,
      "Ġbelonged": 6855,
      "Ġbringing": 6856,
      "Ġcultivated": 6857,
      "Ġholds": 6858,
      "THIC": 6859,
      "arsh": 6860,
      "Ġshoot": 6861,
      "Ġdecisions": 6862,
      "outheast": 6863,
      "Ġdevoted": 6864,
      "adi": 6865,
      "Ġstruggle": 6866,
      "Ġcontributions": 6867,
      "Ġcontained": 6868,
      "Ġ1991": 6869,
      "Ġbattle": 6870,
      "Ġflour": 6871,
      "Ġpassing": 6872,
      "Title": 6873,
      "Ġwishes": 6874,
      "Ġrecognize": 6875,
      "Ġautonom": 6876,
      "Ġdates": 6877,
      "ĠArchaeology": 6878,
      "Ġchance": 6879,
      "ĠSpe": 6880,
      "Ġcapacity": 6881,
      "ji": 6882,
      "ĠSemin": 6883,
      "Ġsubstit": 6884,
      "Ġstudent": 6885,
      "Ġrelevant": 6886,
      "Ġdepos": 6887,
      "Ġ41": 6888,
      "osm": 6889,
      "ĠRIT": 6890,
      "Ġsecure": 6891,
      "Ġshore": 6892,
      "nel": 6893,
      "Ġisolated": 6894,
      "Ġspecifically": 6895,
      "Ġparticipate": 6896,
      "Ġhorn": 6897,
      "Ġpurchase": 6898,
      "ESS": 6899,
      "aging": 6900,
      "Ġrapidly": 6901,
      "ENS": 6902,
      "Ġclassification": 6903,
      "from": 6904,
      "Ġknife": 6905,
      "pel": 6906,
      "Ġrig": 6907,
      "ĠCOUNC": 6908,
      "Ġgardens": 6909,
      "aha": 6910,
      "Ġhills": 6911,
      "'ll": 6912,
      "ĠAy": 6913,
      "ĠLittle": 6914,
      "Ġclust": 6915,
      "Ġparticipants": 6916,
      "Ġdesert": 6917,
      "raw": 6918,
      "Ġexpans": 6919,
      "asion": 6920,
      "Ġimpact": 6921,
      "ĠAnge": 6922,
      "ushed": 6923,
      "Ġ1937": 6924,
      "Ġreplaced": 6925,
      "Ġ1992": 6926,
      "Ġthr": 6927,
      "Ġ167": 6928,
      "Ġrepresentative": 6929,
      "ĠLOCATION": 6930,
      "Ġfighting": 6931,
      "ĠAFTER": 6932,
      "Ġposts": 6933,
      "Ġkingdom": 6934,
      "utation": 6935,
      "Ġ181": 6936,
      "Ġcombined": 6937,
      "Ġopposed": 6938,
      "Ġwatch": 6939,
      "ĠEar": 6940,
      "Ġiniti": 6941,
      "224": 6942,
      "mittee": 6943,
      "Ġattended": 6944,
      "Ġelaborate": 6945,
      "Ġcompens": 6946,
      "owed": 6947,
      "ĠFORM": 6948,
      "ĠEr": 6949,
      "Ġneighboring": 6950,
      "ĠLike": 6951,
      "aly": 6952,
      "Ġunp": 6953,
      "Ġconstantly": 6954,
      "ĠJose": 6955,
      "Ġdistinguish": 6956,
      "Ġ871": 6957,
      "Ġexternal": 6958,
      "Ġtables": 6959,
      "Ġhat": 6960,
      "Ġtalking": 6961,
      "Ġtexts": 6962,
      "Ġcriter": 6963,
      "Ġscarce": 6964,
      "Ġshowing": 6965,
      "Ġsigns": 6966,
      "Ġconstructed": 6967,
      "Ġerect": 6968,
      "âĢĿ;": 6969,
      "IFICATION": 6970,
      "Ġ90": 6971,
      "ĠCorn": 6972,
      "wed": 6973,
      "115": 6974,
      "192": 6975,
      "MATH": 6976,
      "Ġfulf": 6977,
      "ĠLes": 6978,
      "Ġnegative": 6979,
      "ĠAFTERMATH": 6980,
      "Ġtrust": 6981,
      "Ġpassage": 6982,
      "Ġabandoned": 6983,
      "ĠDa": 6984,
      "ĠFA": 6985,
      "letin": 6986,
      "Ġenemies": 6987,
      "otic": 6988,
      "Ġvic": 6989,
      "Ġinitiation": 6990,
      "ĠTherefore": 6991,
      "cultural": 6992,
      "Ġstaff": 6993,
      "ĠEN": 6994,
      "ĠPolynes": 6995,
      "Ġestablishment": 6996,
      "ĠCOUNCILS": 6997,
      "ĠRITUAL": 6998,
      "ĠBu": 6999,
      "ĠPapers": 7000,
      "ĠMass": 7001,
      "Ġrecognition": 7002,
      "ongs": 7003,
      "ĠBasque": 7004,
      "Ġ75": 7005,
      "keley": 7006,
      "Ġtaboo": 7007,
      "ONS": 7008,
      "With": 7009,
      "ĠGood": 7010,
      "raid": 7011,
      "ĠTECH": 7012,
      "inted": 7013,
      "ĠREST": 7014,
      "heastern": 7015,
      "EVER": 7016,
      "Ġviolence": 7017,
      "ĠThrough": 7018,
      "Ġproviding": 7019,
      "Ġracial": 7020,
      "ĠFrancisco": 7021,
      "Ġgroom": 7022,
      "Ġmissionary": 7023,
      "Ġba": 7024,
      "Ġletter": 7025,
      "ĠBet": 7026,
      "isl": 7027,
      "Ġvast": 7028,
      "ahu": 7029,
      "ĠANN": 7030,
      "ĠPap": 7031,
      "ifications": 7032,
      "Ġ631": 7033,
      "Ġcoconut": 7034,
      "ĠVE": 7035,
      "gence": 7036,
      "unction": 7037,
      "atically": 7038,
      "Ġcontrary": 7039,
      "onto": 7040,
      "ĠInc": 7041,
      "Ġfreedom": 7042,
      "ĠHun": 7043,
      "Ġeducational": 7044,
      "ski": 7045,
      "Ġ1939": 7046,
      "Ġ535": 7047,
      "Ġouts": 7048,
      "Ġapply": 7049,
      "Ġintercourse": 7050,
      "ĠCreek": 7051,
      "How": 7052,
      "Ġlinked": 7053,
      "Ġteeth": 7054,
      "ĠColumbia": 7055,
      "ĠAny": 7056,
      "Ġbamboo": 7057,
      "Ã©n": 7058,
      "rain": 7059,
      "Ġstrat": 7060,
      "Ġmyths": 7061,
      "Ġpoles": 7062,
      "Ġ821": 7063,
      "ĠGold": 7064,
      "Ġcredit": 7065,
      "Ġdecline": 7066,
      "ĠEgypt": 7067,
      "ĠRULES": 7068,
      "RIES": 7069,
      "while": 7070,
      "Ġexpedition": 7071,
      "Ġclosed": 7072,
      "ĠAcad": 7073,
      "Ġnormally": 7074,
      "Ġintellectual": 7075,
      "ÂłÂłÂł": 7076,
      "Ġwriter": 7077,
      "irit": 7078,
      "Ġbiological": 7079,
      "aux": 7080,
      "Ġstret": 7081,
      "Ġpit": 7082,
      "CHANGE": 7083,
      "Ġ?": 7084,
      "chi": 7085,
      "Ġbeads": 7086,
      "ĠEXCHANGE": 7087,
      "Ġdecla": 7088,
      "iant": 7089,
      "ĠMoh": 7090,
      "ĠGerman": 7091,
      "Ġcutting": 7092,
      "Ġplanting": 7093,
      "sa": 7094,
      "Ġsole": 7095,
      "Ġsnake": 7096,
      "ĠLater": 7097,
      "arer": 7098,
      "ETS": 7099,
      "Ġplate": 7100,
      "lesh": 7101,
      "ĠCongress": 7102,
      "ĠKal": 7103,
      "Ġunity": 7104,
      "ĠBEVER": 7105,
      "ĠEngland": 7106,
      "Ġadvance": 7107,
      "Ġconsequence": 7108,
      "Ġexactly": 7109,
      "Ġ!": 7110,
      "Ġharm": 7111,
      "Ġconsiderably": 7112,
      "inea": 7113,
      "rete": 7114,
      "ĠJewish": 7115,
      "Ġquiet": 7116,
      "Ġfieldwork": 7117,
      "oz": 7118,
      "Ġsoft": 7119,
      "Ġpredomin": 7120,
      "ĠOffice": 7121,
      "Ġ628": 7122,
      "ĠCounty": 7123,
      "ĠEduc": 7124,
      "then": 7125,
      "Some": 7126,
      "sis": 7127,
      "Ġproved": 7128,
      "ĠMARKE": 7129,
      "Ġaltar": 7130,
      "Ġwon": 7131,
      "Ġcreation": 7132,
      "Ġ585": 7133,
      "Ġthrown": 7134,
      "ĠNat": 7135,
      "lar": 7136,
      "ĠMARKETING": 7137,
      "Ġmeasures": 7138,
      "Ġ114": 7139,
      "Ġleads": 7140,
      "Ġsplit": 7141,
      "Ġconsequences": 7142,
      "Ġthin": 7143,
      "UE": 7144,
      "group": 7145,
      "usal": 7146,
      "Ġpref": 7147,
      "making": 7148,
      "ĠAh": 7149,
      "Un": 7150,
      "ĠAgain": 7151,
      "yan": 7152,
      "Ġinvited": 7153,
      "iest": 7154,
      "Ġsuspect": 7155,
      "Ġhierarchy": 7156,
      "Ġconcerns": 7157,
      "ĠEconomic": 7158,
      "Ġunusual": 7159,
      "Ġtub": 7160,
      "Ġ44": 7161,
      "ĠKn": 7162,
      "Ġrespectively": 7163,
      "ĠPet": 7164,
      "called": 7165,
      "Ġminutes": 7166,
      "Ġgent": 7167,
      "OLOGICAL": 7168,
      "NIC": 7169,
      "Ġwarm": 7170,
      "Ġate": 7171,
      "Ġimpression": 7172,
      "igu": 7173,
      "ĠReviewed": 7174,
      "Ġhypothesis": 7175,
      "Ġserves": 7176,
      "ĠRichard": 7177,
      "Ġordered": 7178,
      "Ġspell": 7179,
      "Ġtrend": 7180,
      "Ġearn": 7181,
      "Ġdreams": 7182,
      "Ġsed": 7183,
      "ĠUpper": 7184,
      "ĠAGE": 7185,
      "lacks": 7186,
      "ĠBEVERAGES": 7187,
      "Ġsecurity": 7188,
      "COHOLIC": 7189,
      "ĠANNUAL": 7190,
      "Ġ1935": 7191,
      "hetic": 7192,
      "Ġtail": 7193,
      "ĠSim": 7194,
      "agon": 7195,
      "Ġwelfare": 7196,
      "Ġpole": 7197,
      "ENCIES": 7198,
      "Ġassess": 7199,
      "ĠFar": 7200,
      "Ġpastoral": 7201,
      "Ġhour": 7202,
      "Ġcontrad": 7203,
      "ĠDance": 7204,
      "ĠAgric": 7205,
      "ÅĤ": 7206,
      "Ġexperienced": 7207,
      "Ġreadily": 7208,
      "Ġpair": 7209,
      "estead": 7210,
      "Ġlying": 7211,
      "Ġwra": 7212,
      "Ġprayers": 7213,
      "VAL": 7214,
      "Ġtrip": 7215,
      "Ġhoriz": 7216,
      "Ġarrangement": 7217,
      "REN": 7218,
      "Ġdynam": 7219,
      "ĠMic": 7220,
      "Ġdebt": 7221,
      "PORT": 7222,
      "Ġalive": 7223,
      "Ġbelongs": 7224,
      "Ġphenomena": 7225,
      "Ġ...": 7226,
      "Ġnewly": 7227,
      "Ġcoffee": 7228,
      "Ġartif": 7229,
      "osing": 7230,
      "Ġwo": 7231,
      "Ġassimil": 7232,
      "Ġmun": 7233,
      "Ġvisits": 7234,
      "ĠAffairs": 7235,
      "Ġegg": 7236,
      "Ġsuccession": 7237,
      "Ġunmarried": 7238,
      "ensity": 7239,
      "Ġ582": 7240,
      "ĠCommittee": 7241,
      "Ġtechnique": 7242,
      "Ġtemporary": 7243,
      "itative": 7244,
      "going": 7245,
      "Ġ233": 7246,
      "Ġcreate": 7247,
      "Ġshrine": 7248,
      "Ġangry": 7249,
      "Ġoffers": 7250,
      "oto": 7251,
      "Ġsummar": 7252,
      "Ġproperly": 7253,
      "ĠMur": 7254,
      "rie": 7255,
      "Ġexclusively": 7256,
      "aku": 7257,
      "Ġbull": 7258,
      "ĠPlains": 7259,
      "Ġcheck": 7260,
      "ogether": 7261,
      "ĠSeveral": 7262,
      "ĠHence": 7263,
      "ĠFolk": 7264,
      "Ġresulted": 7265,
      "Ġwider": 7266,
      "ĠTexas": 7267,
      "ĠDay": 7268,
      "Ġdepends": 7269,
      "Ġkil": 7270,
      "Ġdisputes": 7271,
      "Ġsilver": 7272,
      "ĠCYCLE": 7273,
      "teenth": 7274,
      "Ar": 7275,
      "foot": 7276,
      "Ġpu": 7277,
      "Ġbundle": 7278,
      "Ġraise": 7279,
      "âĢĿ)": 7280,
      "ousing": 7281,
      "Ġafraid": 7282,
      "ĠConf": 7283,
      "Ġdwelling": 7284,
      "chief": 7285,
      "Ġreconstruct": 7286,
      "Ġpan": 7287,
      "ĠTA": 7288,
      "Ġrates": 7289,
      "UNA": 7290,
      "Ġhide": 7291,
      "ĠDRI": 7292,
      "oubted": 7293,
      "Ġcenters": 7294,
      "Ġ1946": 7295,
      "Ġinstrument": 7296,
      "ĠPOL": 7297,
      "icine": 7298,
      "igan": 7299,
      "Ġstrange": 7300,
      "yo": 7301,
      "ĠDIST": 7302,
      "Ġfle": 7303,
      "Ġconception": 7304,
      "ĠJust": 7305,
      "Ġliqu": 7306,
      "Ġdro": 7307,
      "ĠId": 7308,
      "ĠWork": 7309,
      "ĠFAMILI": 7310,
      "Ġeldest": 7311,
      "Îµ": 7312,
      "Ġdesigns": 7313,
      "ĠFAMILIES": 7314,
      "asa": 7315,
      "Ġdiscover": 7316,
      "Ġflood": 7317,
      "roe": 7318,
      "force": 7319,
      "iform": 7320,
      "Ġheadman": 7321,
      "Ġrestricted": 7322,
      "Ġabsent": 7323,
      "ĠBerkeley": 7324,
      "TICE": 7325,
      "Ġstem": 7326,
      "Ġsuperv": 7327,
      "lements": 7328,
      "ENDED": 7329,
      "Ġsurprising": 7330,
      "Ġ55": 7331,
      "irable": 7332,
      "pent": 7333,
      "ĠVer": 7334,
      "Ġtales": 7335,
      "gent": 7336,
      "ĠYak": 7337,
      "LAW": 7338,
      "ĠJUS": 7339,
      "Ġvaried": 7340,
      "oria": 7341,
      "ĠEXTENDED": 7342,
      "648": 7343,
      "Ġ224": 7344,
      "inct": 7345,
      "ĠProc": 7346,
      "Ġpreceding": 7347,
      "Ġpublication": 7348,
      "ĠEMO": 7349,
      "ĠJUSTICE": 7350,
      "adel": 7351,
      "Ġfounded": 7352,
      "Ġbenefit": 7353,
      "Ġnotice": 7354,
      "Ġtong": 7355,
      "Ġcrowd": 7356,
      "ANTS": 7357,
      "Ġnevertheless": 7358,
      "ĠDRIVES": 7359,
      "ĠEMOTIONS": 7360,
      "Ġ291": 7361,
      "Ġdecre": 7362,
      "mith": 7363,
      "orted": 7364,
      "Ġdram": 7365,
      "Ġadvanced": 7366,
      "Ġquarrel": 7367,
      "ilit": 7368,
      "kins": 7369,
      ".;": 7370,
      "bar": 7371,
      "Ġprices": 7372,
      "Ġaccum": 7373,
      "ulating": 7374,
      "Ġcontrolled": 7375,
      "Ġfamous": 7376,
      "ieth": 7377,
      "Ġbegun": 7378,
      "hus": 7379,
      "ĠLatin": 7380,
      "gal": 7381,
      "Ġterminology": 7382,
      "ĠSec": 7383,
      "Ġcourts": 7384,
      "uly": 7385,
      "isation": 7386,
      "ĠSel": 7387,
      "ĠKan": 7388,
      "Ġ788": 7389,
      "Ġgoats": 7390,
      "ocial": 7391,
      "Ġsubord": 7392,
      "Ġtranslated": 7393,
      "got": 7394,
      "Ġcontributed": 7395,
      "AMY": 7396,
      "ĠClass": 7397,
      "Ġstar": 7398,
      "Ġexpansion": 7399,
      "Ġ1993": 7400,
      "aments": 7401,
      "Ġtheme": 7402,
      "Ġobserve": 7403,
      "Ġshout": 7404,
      "phe": 7405,
      "olithic": 7406,
      "ping": 7407,
      "ĠBen": 7408,
      "Ġafford": 7409,
      "cal": 7410,
      "Ġoldest": 7411,
      "Ġwet": 7412,
      "From": 7413,
      "Ġrequest": 7414,
      "oos": 7415,
      "Ġconsisted": 7416,
      "ĠPOLYG": 7417,
      "Ġthread": 7418,
      "SYCHOLOGY": 7419,
      "Ġdestroyed": 7420,
      "ĠETHNOPSYCHOLOGY": 7421,
      "Ġsight": 7422,
      "Ġfeelings": 7423,
      "Ġthereby": 7424,
      "ĠFour": 7425,
      "TAIL": 7426,
      "after": 7427,
      "mi": 7428,
      "ĠAle": 7429,
      "ĠChildren": 7430,
      "ĠMary": 7431,
      "Ġflesh": 7432,
      "Ġloose": 7433,
      "ĠFrank": 7434,
      "ĠPOLYGAMY": 7435,
      "Ġhomestead": 7436,
      "ĠRETAIL": 7437,
      "cks": 7438,
      "Ġluck": 7439,
      "Ġ124": 7440,
      "Ġmotiv": 7441,
      "ĠMother": 7442,
      "Ġadequate": 7443,
      "Ġsocio": 7444,
      "Ġtouch": 7445,
      "BE": 7446,
      "Ġtempor": 7447,
      "Ġ1947": 7448,
      "Ġsin": 7449,
      "YING": 7450,
      "Ġinvestigation": 7451,
      "Ġstopped": 7452,
      "Ġdiffer": 7453,
      "Ġ665": 7454,
      "Ġspons": 7455,
      "Ġvisiting": 7456,
      "ĠEDUCATIONAL": 7457,
      "Ġsoldiers": 7458,
      "ĠSum": 7459,
      "Ġviewed": 7460,
      "Ġ46": 7461,
      "Ġteaching": 7462,
      "Ġplaying": 7463,
      "Ġhappen": 7464,
      "Ġtar": 7465,
      "Ġox": 7466,
      "EATH": 7467,
      "ĠCollege": 7468,
      "ĠFAUNA": 7469,
      "she": 7470,
      "ĠNatural": 7471,
      "Ġcontinuous": 7472,
      "oul": 7473,
      "Ġvisitors": 7474,
      "Ġsupplement": 7475,
      "Ġstation": 7476,
      "ĠTRANSPORT": 7477,
      "ĠSud": 7478,
      "itled": 7479,
      "Ġstandards": 7480,
      "Ġmel": 7481,
      "Ġmarkets": 7482,
      "ĠOcc": 7483,
      "Ġmagical": 7484,
      "Ġvariations": 7485,
      "Ġprograms": 7486,
      "Sh": 7487,
      "Ġcivilization": 7488,
      "ĠINFORMANTS": 7489,
      "Ġskins": 7490,
      "190": 7491,
      "Ġpas": 7492,
      "Ġobviously": 7493,
      "Ġspear": 7494,
      "136": 7495,
      "Ġsust": 7496,
      "ĠDISTRIC": 7497,
      "Ġorders": 7498,
      "Another": 7499,
      "Ġteach": 7500,
      "Ġskills": 7501,
      "ican": 7502,
      "ĠGreen": 7503,
      "oubtedly": 7504,
      "you": 7505,
      "ele": 7506,
      "Ġhab": 7507,
      "anned": 7508,
      "ĠOut": 7509,
      "Ġincident": 7510,
      "ĠCanadian": 7511,
      "Ġentrance": 7512,
      "Ġclim": 7513,
      "si": 7514,
      "Ġstayed": 7515,
      "Ġbibliography": 7516,
      "Ġfestiv": 7517,
      "ĠSher": 7518,
      "pread": 7519,
      "ĠEarly": 7520,
      "Ġattributed": 7521,
      "Ġexamination": 7522,
      "Ġachieved": 7523,
      "ĠKu": 7524,
      "ailed": 7525,
      "Ġsucceeded": 7526,
      "spring": 7527,
      "was": 7528,
      "Ġdistur": 7529,
      "Ġ1929": 7530,
      "Ġtwice": 7531,
      "ĠSCH": 7532,
      "Ġ162": 7533,
      "Ġsummary": 7534,
      "Ġuniversal": 7535,
      "Ġfalls": 7536,
      "Äĵ": 7537,
      "embered": 7538,
      "aces": 7539,
      "Ġmanagement": 7540,
      "Ġku": 7541,
      "inding": 7542,
      "ĠHenry": 7543,
      "ĠBEH": 7544,
      "Ġwealthy": 7545,
      "Ġaboriginal": 7546,
      "ESCENT": 7547,
      "Ġrid": 7548,
      "Ġsettlers": 7549,
      "Ġregularly": 7550,
      "ĠDISTRICTS": 7551,
      "atus": 7552,
      "they": 7553,
      "Ġhappens": 7554,
      "ĠRelations": 7555,
      ".âĢĶ": 7556,
      "ĠCAST": 7557,
      "aming": 7558,
      "aign": 7559,
      "ILDING": 7560,
      "irgin": 7561,
      "Ġaftern": 7562,
      "Ġdressed": 7563,
      "ovi": 7564,
      "Ġinvolves": 7565,
      "Ġpatrilineal": 7566,
      "Ġarchaeological": 7567,
      "Le": 7568,
      "Ġcloser": 7569,
      "zy": 7570,
      "ĠBEHAVI": 7571,
      "ĠACC": 7572,
      "Ġescape": 7573,
      "ĠPUR": 7574,
      "OLS": 7575,
      "Ġretain": 7576,
      "Ġhandle": 7577,
      "ĠStruct": 7578,
      "776": 7579,
      "iture": 7580,
      "ĠBig": 7581,
      "stance": 7582,
      "Ġentertain": 7583,
      "Ġgranted": 7584,
      "Ġaddressed": 7585,
      "Ġargued": 7586,
      "Ġmemory": 7587,
      "ĠBEHAVIOR": 7588,
      "Ġinfluences": 7589,
      "Ġtemper": 7590,
      "431": 7591,
      "rous": 7592,
      "Ġfeud": 7593,
      "152": 7594,
      "Ġethnography": 7595,
      "ĠToday": 7596,
      "ĠUnion": 7597,
      "umn": 7598,
      "ublished": 7599,
      "ste": 7600,
      "Ġ;": 7601,
      "Ġdivisions": 7602,
      "Ġ131": 7603,
      "ran": 7604,
      "pon": 7605,
      "Ġrevolution": 7606,
      "Ġbuildings": 7607,
      "ĠCommunity": 7608,
      "Ġdiam": 7609,
      "cere": 7610,
      "oring": 7611,
      "................": 7612,
      "Ġ1934": 7613,
      "ĠMOR": 7614,
      "ĠETHIC": 7615,
      "Ġreflected": 7616,
      "Ġdancers": 7617,
      "Ġprepare": 7618,
      "ĠETHICS": 7619,
      "Ġtechnical": 7620,
      "wife": 7621,
      "idespread": 7622,
      "Ġbath": 7623,
      "ĠStan": 7624,
      "TIVES": 7625,
      "Ġ727": 7626,
      "Ġsymp": 7627,
      "ĠPan": 7628,
      "Ġstages": 7629,
      "ĠCarol": 7630,
      "rob": 7631,
      "Ġecological": 7632,
      "Ġ1900": 7633,
      "Ġimplications": 7634,
      "During": 7635,
      "iÃ³n": 7636,
      "Ġinner": 7637,
      "ĠBulletin": 7638,
      "Ġ431": 7639,
      "ĠCASTES": 7640,
      "ĠHill": 7641,
      "odox": 7642,
      "ĠWEALTH": 7643,
      "ĠATON": 7644,
      "ĠPURIFICATION": 7645,
      "Ġreplied": 7646,
      "Ġ65": 7647,
      "Ġmatrilineal": 7648,
      "ĠATONEMENT": 7649,
      "UMULATION": 7650,
      "ipment": 7651,
      "ĠACCUMULATION": 7652,
      "Ġcorner": 7653,
      "Ġpaternal": 7654,
      "87": 7655,
      "Ġnecessity": 7656,
      "Ġnuclear": 7657,
      "ented": 7658,
      "Ġmillion": 7659,
      "ibid": 7660,
      "Ġwished": 7661,
      "licated": 7662,
      "Ġpreferred": 7663,
      "Ġvoc": 7664,
      "ORD": 7665,
      "Ġlaugh": 7666,
      "ibo": 7667,
      "Ġprison": 7668,
      "Ġirrigation": 7669,
      "104": 7670,
      "Ġmode": 7671,
      "Ġadvice": 7672,
      "Ġhappy": 7673,
      "ĠHand": 7674,
      "ĠOs": 7675,
      "Ġjudge": 7676,
      "Ġsyn": 7677,
      "Ġears": 7678,
      "terly": 7679,
      "ĠTem": 7680,
      "Ġdescriptions": 7681,
      "aco": 7682,
      "Ġdecades": 7683,
      "Ġconversation": 7684,
      "itz": 7685,
      "ĠRECRE": 7686,
      "Ġcruc": 7687,
      "ĠPueblo": 7688,
      "inated": 7689,
      "osa": 7690,
      "umber": 7691,
      "acc": 7692,
      "Ġdesired": 7693,
      "IANS": 7694,
      "ĠPlate": 7695,
      "rian": 7696,
      "'-": 7697,
      "Ġtended": 7698,
      "Ġconceptual": 7699,
      "Ġsuitable": 7700,
      "liest": 7701,
      "ipped": 7702,
      "Ġ1994": 7703,
      "ĠHur": 7704,
      "Ġresistance": 7705,
      "ĠPsych": 7706,
      "Ġ828": 7707,
      "Ġidentification": 7708,
      "Ġsubstantial": 7709,
      "owing": 7710,
      "][": 7711,
      "tec": 7712,
      "Ġcomments": 7713,
      "Ġremarkable": 7714,
      "Ġagn": 7715,
      "ĠSimilarly": 7716,
      "uation": 7717,
      "ĠDEATH": 7718,
      "ĠTOOLS": 7719,
      "Ġfeed": 7720,
      "Ġwidespread": 7721,
      "Ġlimits": 7722,
      "Ġkit": 7723,
      "ĠOCC": 7724,
      "ĠWood": 7725,
      "Ġpatron": 7726,
      "Ġdefend": 7727,
      "ĠDie": 7728,
      "race": 7729,
      "ĠRECREATIONAL": 7730,
      "Ġwarfare": 7731,
      "Ġbox": 7732,
      "Ġreturns": 7733,
      "Ġnut": 7734,
      "ĠChristianity": 7735,
      "Ġ757": 7736,
      "Ġ1945": 7737,
      "Ġburned": 7738,
      "ĠEc": 7739,
      "Ġ123": 7740,
      "ongo": 7741,
      "ĠTw": 7742,
      "ĠDo": 7743,
      "anti": 7744,
      "Ġcitizens": 7745,
      "Ġeth": 7746,
      "Ġarrangements": 7747,
      "opia": 7748,
      "Ġapplication": 7749,
      "Ġinev": 7750,
      "Ġrepresenting": 7751,
      "Ġconclusions": 7752,
      "Ġorigins": 7753,
      "Ġphenomenon": 7754,
      "Ġgoat": 7755,
      "Ġ1931": 7756,
      "ĠCop": 7757,
      "Ġreserv": 7758,
      "who": 7759,
      "Ġprosper": 7760,
      "Ġinvolving": 7761,
      "ĠUT": 7762,
      "Ġalien": 7763,
      "aning": 7764,
      "utch": 7765,
      "Ġsev": 7766,
      "Ġobser": 7767,
      "Ġfruits": 7768,
      "Ġsleeping": 7769,
      "ĠPROPH": 7770,
      "Ġexamine": 7771,
      "Ġrival": 7772,
      "ĠSir": 7773,
      "oct": 7774,
      "vol": 7775,
      "ĠAlaska": 7776,
      "ĠOCCUP": 7777,
      "Ġbowl": 7778,
      "ĠASCETICS": 7779,
      "ĠPROPHETS": 7780,
      "OMING": 7781,
      "Ġum": 7782,
      "thodox": 7783,
      "arc": 7784,
      "Ġstruck": 7785,
      "ĠPark": 7786,
      "ooth": 7787,
      "iments": 7788,
      "Ġbare": 7789,
      "ĠLingu": 7790,
      "Ġcontaining": 7791,
      "While": 7792,
      "Ġ164": 7793,
      "Ġsequence": 7794,
      "Ġpersu": 7795,
      "ĠMorm": 7796,
      "ĠAge": 7797,
      "ĠIran": 7798,
      "ĠSPECIALIZATION": 7799,
      "PS": 7800,
      "Ġpermission": 7801,
      "Ġ1910": 7802,
      "Ġmental": 7803,
      "Ġremembered": 7804,
      "ĠAnnual": 7805,
      "Ġ596": 7806,
      "ĠARCHIVAL": 7807,
      "mble": 7808,
      "UTH": 7809,
      "ĠIl": 7810,
      "ĠSystem": 7811,
      "Ġexclud": 7812,
      "ucks": 7813,
      "ĠINDUSTRIES": 7814,
      "Ġrecomm": 7815,
      "162": 7816,
      "ĠOCCUPATIONAL": 7817,
      "Ġuns": 7818,
      "Ġcontexts": 7819,
      "ĠMak": 7820,
      "iw": 7821,
      "Ġcorpse": 7822,
      "ĠNuer": 7823,
      "Ġju": 7824,
      "speaking": 7825,
      "wealth": 7826,
      "Ġaside": 7827,
      "ĠHait": 7828,
      "Ġemotional": 7829,
      "ioc": 7830,
      "ĠPolitical": 7831,
      "amer": 7832,
      "ĠGROOMING": 7833,
      "Ġ174": 7834,
      "ologies": 7835,
      "Ġafternoon": 7836,
      "Ġconvention": 7837,
      "Ġbehaviour": 7838,
      "eff": 7839,
      "urches": 7840,
      "ĠCub": 7841,
      "ĠPen": 7842,
      "Ġ584": 7843,
      "Ġcousins": 7844,
      "ĠLew": 7845,
      "Ġshamans": 7846,
      "Ġexpert": 7847,
      "Ġidentical": 7848,
      "Ġsang": 7849,
      "Ġpover": 7850,
      "Ġvariables": 7851,
      "ĠSeries": 7852,
      "ILIT": 7853,
      "ĠAsh": 7854,
      "Ġcomposition": 7855,
      "ENSILS": 7856,
      "ĠTAX": 7857,
      "ĠUTENSILS": 7858,
      "iry": 7859,
      "Ġvirtually": 7860,
      "Ġphilosoph": 7861,
      "stone": 7862,
      "Ġinfluenced": 7863,
      "Ġpots": 7864,
      "Ġreceives": 7865,
      "ILITARY": 7866,
      "Ġestimated": 7867,
      "ĠMILITARY": 7868,
      "tenance": 7869,
      "Ġplat": 7870,
      "lav": 7871,
      "ĠdÃ©": 7872,
      "ĠRoman": 7873,
      "ourd": 7874,
      "Ġpoverty": 7875,
      "Ġgained": 7876,
      "uate": 7877,
      "Ġskull": 7878,
      "Ġsituated": 7879,
      "Ġattribut": 7880,
      "aria": 7881,
      "Ġni": 7882,
      "Ġwrite": 7883,
      "Ġproposed": 7884,
      "ĠINST": 7885,
      "Ġfarmer": 7886,
      "PTION": 7887,
      "Ġwhenever": 7888,
      "ture": 7889,
      "Ġinstitutional": 7890,
      "EAS": 7891,
      "Ġminority": 7892,
      "Ġmes": 7893,
      "Ġlikewise": 7894,
      "ĠFlor": 7895,
      "Ġsouls": 7896,
      "Ġ51": 7897,
      "Ġdestruct": 7898,
      "Ġmobility": 7899,
      "Ġmur": 7900,
      ".-": 7901,
      "Ġ1932": 7902,
      "Ġod": 7903,
      "ĠItalians": 7904,
      "Ġexamined": 7905,
      "Ġprove": 7906,
      "Ġpipe": 7907,
      "Ġassumption": 7908,
      "Ġcombination": 7909,
      "ĠDIVIN": 7910,
      "GS": 7911,
      "Ġbalance": 7912,
      "ĠDIVINERS": 7913,
      "182": 7914,
      "ĠETHNOG": 7915,
      "Ġsecular": 7916,
      "ĠMAGICIANS": 7917,
      "Ġphase": 7918,
      "Ġsolidarity": 7919,
      "Ġprobable": 7920,
      "Ġmaps": 7921,
      "Ġencl": 7922,
      "ĠLAND": 7923,
      "Ġmarks": 7924,
      "Ġsteps": 7925,
      "Ġemp": 7926,
      "Ġpreserved": 7927,
      "Ġillustrated": 7928,
      "89": 7929,
      "Ġestate": 7930,
      "Ġ180": 7931,
      "ĠJuan": 7932,
      "ĠMOUR": 7933,
      "Ġdispute": 7934,
      "Now": 7935,
      "ĠTAXATION": 7936,
      "Ġrevealed": 7937,
      "related": 7938,
      "Ġsafe": 7939,
      "Ġsacrifices": 7940,
      "Ġhospital": 7941,
      "Ġquantity": 7942,
      "ection": 7943,
      "Ġproductive": 7944,
      "tering": 7945,
      "anton": 7946,
      "century": 7947,
      "Ġdistinctive": 7948,
      "ĠMOURNING": 7949,
      "342": 7950,
      "owa": 7951,
      "Ġmedicines": 7952,
      "Ġ52": 7953,
      "alysis": 7954,
      "Ġincl": 7955,
      "Ġ173": 7956,
      "Ġstrictly": 7957,
      "Ġresulting": 7958,
      "ften": 7959,
      "ĠÂ«": 7960,
      "Ġbeans": 7961,
      "Ġ231": 7962,
      "Ġconsisting": 7963,
      "Ġcontacts": 7964,
      "ker": 7965,
      "Ġagent": 7966,
      "ĠKorea": 7967,
      "Ġtip": 7968,
      "ĠRepublic": 7969,
      "Ġcore": 7970,
      "Ġconserv": 7971,
      "asty": 7972,
      "Ġfriendship": 7973,
      "Ġruns": 7974,
      "Ġprem": 7975,
      "ĠNd": 7976,
      "Ġlisted": 7977,
      "Ġinformed": 7978,
      "bing": 7979,
      "ĠBes": 7980,
      "Ġconform": 7981,
      "Ġuniform": 7982,
      "Ġentitled": 7983,
      "keep": 7984,
      "Ġburning": 7985,
      "Ġsupplies": 7986,
      "ĠGuinea": 7987,
      "ĠSurvey": 7988,
      "ĠMUSICAL": 7989,
      "Ġtitles": 7990,
      "CEPTION": 7991,
      "ILITIES": 7992,
      "Ġcro": 7993,
      "Ġkings": 7994,
      "works": 7995,
      "Ġ583": 7996,
      "ĠINSTIGATION": 7997,
      "ĠInstead": 7998,
      "ĠCat": 7999,
      "OW": 8000,
      "Ġwool": 8001,
      "Ġimages": 8002,
      "omach": 8003,
      "Ġavo": 8004,
      "Ġheat": 8005,
      "Ġrob": 8006,
      "ĠTIM": 8007,
      "Ġphon": 8008,
      "ario": 8009,
      "Ġlabore": 8010,
      "Ġ642": 8011,
      "Ġfal": 8012,
      "ĠHo": 8013,
      "inh": 8014,
      "ĠGreek": 8015,
      "103": 8016,
      "ĠIg": 8017,
      "Ġcapable": 8018,
      "Ġdecorated": 8019,
      "child": 8020,
      "ador": 8021,
      "Ġanswered": 8022,
      "Ġencouraged": 8023,
      "oko": 8024,
      "Ġjun": 8025,
      "Ġshop": 8026,
      "ĠHan": 8027,
      "Ġequipment": 8028,
      "ĠTRIBE": 8029,
      "Ġturns": 8030,
      "Ġff": 8031,
      "Ġpartners": 8032,
      "ĠDem": 8033,
      "Ġpresentation": 8034,
      "ĠMAN": 8035,
      "Ġdrive": 8036,
      "Ġrows": 8037,
      "Ġ434": 8038,
      "Ġdocuments": 8039,
      "Ġ1941": 8040,
      "Ġencoun": 8041,
      "INING": 8042,
      "Ġmud": 8043,
      "nam": 8044,
      "Ġdug": 8045,
      "ĠJoseph": 8046,
      "ĠVAL": 8047,
      "cery": 8048,
      "Ġbearing": 8049,
      "243": 8050,
      "Ġmourning": 8051,
      "Ġmetaph": 8052,
      "Ġot": 8053,
      "Ġ54": 8054,
      "166": 8055,
      "Ġshift": 8056,
      "Ġcontribute": 8057,
      "BID": 8058,
      "Ġinherited": 8059,
      "oting": 8060,
      "itors": 8061,
      "ĠNATION": 8062,
      "ANCY": 8063,
      "Ġcousin": 8064,
      "Ġwore": 8065,
      "Ġnetwork": 8066,
      "Ġassigned": 8067,
      "ĠRam": 8068,
      "Ġ1928": 8069,
      "itarian": 8070,
      "Ġmanuscript": 8071,
      "ĠSYSTEMS": 8072,
      "istical": 8073,
      "Ġpolyg": 8074,
      "ĠSouthwest": 8075,
      "ĠBat": 8076,
      "ĠKam": 8077,
      "Ġrepresentatives": 8078,
      "Ġgreet": 8079,
      "Ġstreet": 8080,
      "Ġterritorial": 8081,
      "Ġidentify": 8082,
      "olt": 8083,
      "Ġbears": 8084,
      "ĠRican": 8085,
      "Ġaudience": 8086,
      "kw": 8087,
      "ĠHon": 8088,
      "Ġscene": 8089,
      "ĠMORBID": 8090,
      "ĠMORBIDITY": 8091,
      "Ġtelling": 8092,
      "hav": 8093,
      "four": 8094,
      "atown": 8095,
      "hether": 8096,
      "Ġwine": 8097,
      "Ġlose": 8098,
      "Ġdism": 8099,
      "Ġmerchants": 8100,
      "Ġcampaign": 8101,
      "ĠDEC": 8102,
      "ĠDog": 8103,
      "Ġtwent": 8104,
      "ĠTIME": 8105,
      "Ġpregnant": 8106,
      "ĠTHEOLOGICAL": 8107,
      "Ġtea": 8108,
      "ĠFrance": 8109,
      "Ġagency": 8110,
      "Ġfinding": 8111,
      "Ġtu": 8112,
      "ĠTERMINATION": 8113,
      "Ġearliest": 8114,
      "Ġslowly": 8115,
      "Ġinterpreted": 8116,
      "Ġqualities": 8117,
      "overy": 8118,
      "Ġsexes": 8119,
      "Ġseparation": 8120,
      "Ġexcess": 8121,
      "Ġmeanings": 8122,
      "eman": 8123,
      "ĠEst": 8124,
      "Ġdomain": 8125,
      "ĠOb": 8126,
      "children": 8127,
      "ARM": 8128,
      "Ġpractically": 8129,
      "Ġsurvival": 8130,
      "ĠDRU": 8131,
      "Ġrele": 8132,
      "Ġgoal": 8133,
      "har": 8134,
      "ĠCur": 8135,
      "Ġ56": 8136,
      "ĠUSE": 8137,
      "Ġdiscussions": 8138,
      "ĠLord": 8139,
      "ailing": 8140,
      "osal": 8141,
      "Ġprojects": 8142,
      "mas": 8143,
      "Ġrhy": 8144,
      "iat": 8145,
      "economic": 8146,
      "len": 8147,
      "Ġ127": 8148,
      "ĠBOD": 8149,
      "ĠPlace": 8150,
      "ĠOW": 8151,
      "Ġprofit": 8152,
      "Ġ1933": 8153,
      "Ġelected": 8154,
      "ĠFox": 8155,
      "ĠGAMES": 8156,
      "ptions": 8157,
      "ĠLo": 8158,
      "Ġoccasional": 8159,
      "Ġring": 8160,
      "ĠBal": 8161,
      "Ġtie": 8162,
      "Ġarcheological": 8163,
      "IGHTS": 8164,
      "Ġintr": 8165,
      "Ġelderly": 8166,
      "ĠLow": 8167,
      "NAM": 8168,
      "Ġspecimens": 8169,
      "Ġuncon": 8170,
      "Ġadoption": 8171,
      "Ġcommitted": 8172,
      "ĠIndones": 8173,
      "vation": 8174,
      "Ġreturning": 8175,
      "Ġparad": 8176,
      "Ġwonder": 8177,
      "ettle": 8178,
      "Ġanalog": 8179,
      "Ġgames": 8180,
      "Ġdispers": 8181,
      "ĠCenter": 8182,
      "Ġspect": 8183,
      "Ġpull": 8184,
      "Ġimpress": 8185,
      "THER": 8186,
      "ĠArmenian": 8187,
      "Ġputs": 8188,
      "Ġoral": 8189,
      "oster": 8190,
      "ĠWhy": 8191,
      "ĠSLA": 8192,
      "ĠPrince": 8193,
      "ĠWoman": 8194,
      "Ġfaces": 8195,
      "ĠJews": 8196,
      "rem": 8197,
      "Ġraw": 8198,
      "100": 8199,
      "Ġstead": 8200,
      "Ġundoubtedly": 8201,
      "ĠTan": 8202,
      "Ġboundary": 8203,
      "Ġrail": 8204,
      "By": 8205,
      "USIN": 8206,
      "ĠAnglo": 8207,
      "Ġvent": 8208,
      "Ġabstract": 8209,
      "Ġcosm": 8210,
      "Ġdiscourse": 8211,
      "___.": 8212,
      "ĠBear": 8213,
      "ĠAID": 8214,
      "Ġvon": 8215,
      "han": 8216,
      "Ġnort": 8217,
      "Ġresponses": 8218,
      "Ġedited": 8219,
      "Ġfunctional": 8220,
      "Ġapproaches": 8221,
      "Ġera": 8222,
      "ĠPRICE": 8223,
      "LL": 8224,
      "ĠPeter": 8225,
      "Ġadul": 8226,
      "Ġmenstr": 8227,
      "Ġconsistent": 8228,
      "inow": 8229,
      "Ġsave": 8230,
      "ĠTown": 8231,
      "Ġ783": 8232,
      "ĠDespite": 8233,
      "cut": 8234,
      "Ġwrites": 8235,
      "Ġmaintenance": 8236,
      "Ġgeographical": 8237,
      "Ġrecru": 8238,
      "Ġinnov": 8239,
      "Ġ150": 8240,
      "amba": 8241,
      "Ġcooperative": 8242,
      "Ġcarved": 8243,
      "Ġextension": 8244,
      "ĠâĢĻ": 8245,
      "ĠBad": 8246,
      "Ġcorresponding": 8247,
      "Ġcod": 8248,
      "Ġnaturally": 8249,
      "Ġcm": 8250,
      "Ġwithd": 8251,
      "Ġpracticed": 8252,
      "inations": 8253,
      "Ġtheories": 8254,
      "ĠNotes": 8255,
      "Ġfollowers": 8256,
      "istoc": 8257,
      "ĠVALUE": 8258,
      "ĠIban": 8259,
      "Ġnamely": 8260,
      "Ġfright": 8261,
      "Ġeducated": 8262,
      "Ġcup": 8263,
      "ĠMalay": 8264,
      "coh": 8265,
      "Ġ61": 8266,
      "ĠArticle": 8267,
      "Ġvig": 8268,
      "ĠBrah": 8269,
      "Ġunw": 8270,
      "Ġdiseases": 8271,
      "ĠHas": 8272,
      "sequently": 8273,
      "262": 8274,
      "ibi": 8275,
      "Ġcalling": 8276,
      "Ġrisk": 8277,
      "ĠMongolia": 8278,
      "Ġ791": 8279,
      "Ġcarries": 8280,
      "Ġcentre": 8281,
      "That": 8282,
      "ĠMer": 8283,
      "Ġnarrative": 8284,
      "two": 8285,
      "vo": 8286,
      "Ġcab": 8287,
      "osure": 8288,
      "APONS": 8289,
      "ĠNegroes": 8290,
      "Ġpermit": 8291,
      "ĠCertain": 8292,
      "~~": 8293,
      "Ġdefe": 8294,
      "water": 8295,
      "Ġsevent": 8296,
      "ĠWEAPONS": 8297,
      "Ġtends": 8298,
      "Ġts": 8299,
      "Ġlegisl": 8300,
      "Ġrocks": 8301,
      "Ġverb": 8302,
      "Ġsocially": 8303,
      "Ġlandl": 8304,
      "Ġlooks": 8305,
      "ĠPortug": 8306,
      "Ġdeities": 8307,
      "Ġcooperation": 8308,
      "Ġremote": 8309,
      "utive": 8310,
      "Ġgoals": 8311,
      "Ġ651": 8312,
      "actory": 8313,
      "UTI": 8314,
      "isons": 8315,
      "Ġanalys": 8316,
      "Ġ311": 8317,
      "Ġobligation": 8318,
      "put": 8319,
      "Ġhuts": 8320,
      "Ġcomprehens": 8321,
      "Ġeverywhere": 8322,
      "Ġoffspring": 8323,
      "Ġ792": 8324,
      "Ġ634": 8325,
      "Ġchoose": 8326,
      "Ġ556": 8327,
      "Ġenergy": 8328,
      "Ġservants": 8329,
      "Ġdesigned": 8330,
      "acent": 8331,
      "Ġappend": 8332,
      "Ġended": 8333,
      "ĠService": 8334,
      "Ġflowers": 8335,
      "Ġacknowled": 8336,
      "Ġber": 8337,
      "ĠOrganization": 8338,
      "unch": 8339,
      "Ġcoastal": 8340,
      "Ġexercise": 8341,
      "aren": 8342,
      "Ġquarter": 8343,
      "562": 8344,
      "ĠORNAM": 8345,
      "Ġwaters": 8346,
      "ĠEducation": 8347,
      "Ġculturally": 8348,
      "Ġtract": 8349,
      "Ġimmigrant": 8350,
      "ĠALCOHOLIC": 8351,
      "Ġchann": 8352,
      "ĠModern": 8353,
      "Ġrot": 8354,
      "Ġdisapp": 8355,
      "Ġ415": 8356,
      "anting": 8357,
      "Ġheaven": 8358,
      "ria": 8359,
      "ABLE": 8360,
      "Ġvarieties": 8361,
      "VERY": 8362,
      "Ġsynt": 8363,
      "ĠDar": 8364,
      "ĠInform": 8365,
      "aneous": 8366,
      "Ġperpet": 8367,
      "ĠOjibwa": 8368,
      "Ġdiscipline": 8369,
      "ĠBah": 8370,
      "ĠÅ": 8371,
      "ĠChange": 8372,
      "Ġelite": 8373,
      "ĠORNAMENT": 8374,
      "ILITY": 8375,
      "ĠAngeles": 8376,
      "Ġmanip": 8377,
      "Ġdrop": 8378,
      "ĠQue": 8379,
      "ĠNa": 8380,
      "apu": 8381,
      "roeber": 8382,
      "186": 8383,
      "ĠPrim": 8384,
      "EOGRAPHY": 8385,
      "rical": 8386,
      "Ġexogam": 8387,
      "ĠETHNOGEOGRAPHY": 8388,
      "kon": 8389,
      "ROW": 8390,
      "UTICAL": 8391,
      "ARMACE": 8392,
      "tic": 8393,
      "Ġcane": 8394,
      "ĠPHARMACE": 8395,
      "UTICALS": 8396,
      "ĠPHARMACEUTICALS": 8397,
      "iciency": 8398,
      "ses": 8399,
      "ĠFa": 8400,
      "ĠSund": 8401,
      "Ġjur": 8402,
      "Ġinternational": 8403,
      "Ġ1995": 8404,
      "Ġ66": 8405,
      "Ġcrucial": 8406,
      "EO": 8407,
      "Ġworker": 8408,
      "Ġdeity": 8409,
      "Ġwin": 8410,
      "Ġhall": 8411,
      "ĠReligion": 8412,
      "Ġplural": 8413,
      "ishop": 8414,
      "Ġexpend": 8415,
      "ĠTaiwan": 8416,
      "ĠSLAVERY": 8417,
      "ĠOl": 8418,
      "ĠWolf": 8419,
      "Ġmarg": 8420,
      "Ġages": 8421,
      "Ġempt": 8422,
      "Ġvessels": 8423,
      "Ġrational": 8424,
      "parents": 8425,
      "haust": 8426,
      "Ġdirections": 8427,
      "ĠCourt": 8428,
      "Ġsuffered": 8429,
      "Ġboats": 8430,
      "reet": 8431,
      "Ġencourage": 8432,
      "Ġnews": 8433,
      "Ġheavily": 8434,
      "Ġmigrants": 8435,
      "vard": 8436,
      "ny": 8437,
      "oi": 8438,
      "Ġoffices": 8439,
      "Ġprecisely": 8440,
      "Ġtale": 8441,
      "elle": 8442,
      "Ġtechnology": 8443,
      "361": 8444,
      "ĠCamp": 8445,
      "ĠChinatown": 8446,
      "Ġhered": 8447,
      "Ġoccupations": 8448,
      "Ġfunds": 8449,
      "ĠWithin": 8450,
      "Ġsung": 8451,
      "Ġpil": 8452,
      "Ġhousing": 8453,
      "Ġdeli": 8454,
      "Ġweaving": 8455,
      "Ġpercentage": 8456,
      "ĠCult": 8457,
      "ĠAnc": 8458,
      "ĠEC": 8459,
      "Ġroughly": 8460,
      "Ġconflicts": 8461,
      "roduction": 8462,
      "Ġenvironmental": 8463,
      "sect": 8464,
      "Ġash": 8465,
      "Ġuncertain": 8466,
      "anche": 8467,
      "cous": 8468,
      "ĠTES": 8469,
      "Ġdrunk": 8470,
      "Ġverbal": 8471,
      "ĠROUTI": 8472,
      "Ġusage": 8473,
      "Ġmats": 8474,
      "atl": 8475,
      "Ġplates": 8476,
      "ĠDAILY": 8477,
      "73": 8478,
      "Ġbarri": 8479,
      "Ġorientation": 8480,
      "Ġfeasts": 8481,
      "agan": 8482,
      "ĠAGENCIES": 8483,
      "Ġdisappeared": 8484,
      "ĠCONCEPTION": 8485,
      "incial": 8486,
      "Ġhistoric": 8487,
      "JUST": 8488,
      "132": 8489,
      "ĠWater": 8490,
      "Ġthesis": 8491,
      "Ġconfir": 8492,
      "Ġholes": 8493,
      "Ġ125": 8494,
      "Ġlacking": 8495,
      "ĠROUTINE": 8496,
      "Ġble": 8497,
      "Ġwriters": 8498,
      "Ġempir": 8499,
      "Ġplot": 8500,
      "Ġspeaker": 8501,
      "Ġconfined": 8502,
      "Ġvarying": 8503,
      "fish": 8504,
      "ORITY": 8505,
      "bration": 8506,
      "LOS": 8507,
      "ĠINFORMAL": 8508,
      "ĠHindu": 8509,
      "Ġcomfort": 8510,
      "Ġinformal": 8511,
      "aja": 8512,
      "ĠOh": 8513,
      "Ġroads": 8514,
      "ĠSK": 8515,
      "ĠNam": 8516,
      "Ġagents": 8517,
      "gi": 8518,
      "his": 8519,
      "ĠrÃ©": 8520,
      "Ġadmitted": 8521,
      "ĠPawn": 8522,
      "Ġ443": 8523,
      "Ġego": 8524,
      "Ġspat": 8525,
      "Ġmu": 8526,
      "ĠBush": 8527,
      "ĠDur": 8528,
      "back": 8529,
      "Ġ595": 8530,
      "ĠAUTH": 8531,
      "ĠCivil": 8532,
      "Ġmyst": 8533,
      "Ġintention": 8534,
      "ĠCree": 8535,
      "ĠBASIS": 8536,
      "Ġasking": 8537,
      "uli": 8538,
      "Ġreputation": 8539,
      "ogue": 8540,
      "ĠRo": 8541,
      "icated": 8542,
      "Ġsharing": 8543,
      "Ġpresident": 8544,
      "Â·": 8545,
      "Ġwages": 8546,
      "Ġseriously": 8547,
      "Ġ62": 8548,
      "olled": 8549,
      "72": 8550,
      "ĠTESTS": 8551,
      "ĠSCHED": 8552,
      "Ġchurches": 8553,
      "Ġinitiated": 8554,
      "Ġfacing": 8555,
      "Ġoperations": 8556,
      "yst": 8557,
      "lv": 8558,
      "Ġcows": 8559,
      "âĢĿ).": 8560,
      "Ġ64": 8561,
      "ĠPot": 8562,
      "Ġacquire": 8563,
      "IDENCE": 8564,
      "Ġrespects": 8565,
      "Ġjustice": 8566,
      "Ġfindings": 8567,
      "ĠSCHEDULES": 8568,
      "Ġoutl": 8569,
      "ĠPopulation": 8570,
      "ĠEconom": 8571,
      "inship": 8572,
      "adelph": 8573,
      "ĠSing": 8574,
      "ertation": 8575,
      "Ġfriendly": 8576,
      "Ġmir": 8577,
      "FICIAL": 8578,
      "Ġliterally": 8579,
      "Ġpurely": 8580,
      "Anal": 8581,
      "ĠNon": 8582,
      "Ġcommit": 8583,
      "500": 8584,
      "roups": 8585,
      "ĠRESIDENCE": 8586,
      "Ġeveryday": 8587,
      "Ġinferior": 8588,
      "Ġobsc": 8589,
      "Ġhero": 8590,
      "ĠBan": 8591,
      "ĠCOS": 8592,
      "ĠMarriage": 8593,
      "Ġ1942": 8594,
      "Ġmillet": 8595,
      "ĠÂ»": 8596,
      "ĠFlorida": 8597,
      "181": 8598,
      "Ġmetal": 8599,
      "Ġ823": 8600,
      "Ġspeaks": 8601,
      "Ġ`": 8602,
      "obi": 8603,
      "ĠHealth": 8604,
      "ĠBoas": 8605,
      "Ġdoctors": 8606,
      "aneously": 8607,
      "iven": 8608,
      "Ġsimpl": 8609,
      "world": 8610,
      "ĠOthers": 8611,
      "Ġboiled": 8612,
      "ĠJer": 8613,
      "Ġfrequency": 8614,
      "Ġhit": 8615,
      "ĠKen": 8616,
      "Ġwalking": 8617,
      "233": 8618,
      "Ġchieftain": 8619,
      "bon": 8620,
      "di": 8621,
      "Ġfarther": 8622,
      "Ġdimin": 8623,
      "Ġforbidden": 8624,
      "Ġpolicies": 8625,
      "CED": 8626,
      "ĠMah": 8627,
      "ĠWa": 8628,
      "Ġbroke": 8629,
      "mun": 8630,
      "oyote": 8631,
      "Ġtribute": 8632,
      "Ġven": 8633,
      "Ġwarrior": 8634,
      "Ġpatri": 8635,
      "MIN": 8636,
      "ountered": 8637,
      "requ": 8638,
      "Ġreferring": 8639,
      "Ġelim": 8640,
      "Ġbriefly": 8641,
      "Ġbenefits": 8642,
      "125": 8643,
      "ETTE": 8644,
      "MOLOGY": 8645,
      "Ġreward": 8646,
      "ĠLOCAL": 8647,
      "Ġmanufacture": 8648,
      "ĠFAC": 8649,
      "Ġremed": 8650,
      "Ġargues": 8651,
      "IENCE": 8652,
      "Ġplains": 8653,
      "lingit": 8654,
      "Ab": 8655,
      "Ġchildhood": 8656,
      "Ã«": 8657,
      "Ġspouse": 8658,
      "Ġhur": 8659,
      "ĠBoy": 8660,
      "Ġreciproc": 8661,
      "ĠUN": 8662,
      "Ġvision": 8663,
      "Ġhog": 8664,
      "Ġeighteenth": 8665,
      "ĠCOSMOLOGY": 8666,
      "Ġtaro": 8667,
      "Ġencountered": 8668,
      "osis": 8669,
      "Ġseeing": 8670,
      "HIST": 8671,
      "Ġbot": 8672,
      "Ġinterviews": 8673,
      "Ġbene": 8674,
      "Ġacculturation": 8675,
      "Ġlesser": 8676,
      "Ġcovering": 8677,
      "Ġaccused": 8678,
      "ĠPROCED": 8679,
      "ĠBang": 8680,
      "Ġnorms": 8681,
      "adelphia": 8682,
      "ounce": 8683,
      "abul": 8684,
      "ĠDECORA": 8685,
      "ĠPROCEDURE": 8686,
      "ĠADOL": 8687,
      "Ġmand": 8688,
      "Ġcalcul": 8689,
      "Ġremarks": 8690,
      "ĠTRIAL": 8691,
      "just": 8692,
      "ĠDi": 8693,
      "Ġtraditionally": 8694,
      "Ġacceptance": 8695,
      "Ġafterwards": 8696,
      "Ġwearing": 8697,
      "thy": 8698,
      "Ġultimately": 8699,
      "ĠDECORATIVE": 8700,
      "Ġinterpretations": 8701,
      "Ġdriven": 8702,
      "Ġou": 8703,
      "ĠRussia": 8704,
      "dess": 8705,
      "Ġimplements": 8706,
      "ĠChristians": 8707,
      "itect": 8708,
      "ĠFACILITIES": 8709,
      "ĠOver": 8710,
      "Ġdemonstrate": 8711,
      "Ġeagle": 8712,
      "170": 8713,
      "mony": 8714,
      "Ġextract": 8715,
      "Ġak": 8716,
      "Ġdemonstrated": 8717,
      "ĠRio": 8718,
      "Ġ1890": 8719,
      "ĠStr": 8720,
      "85": 8721,
      "Ġalliance": 8722,
      "elling": 8723,
      "ĠForm": 8724,
      "gs": 8725,
      "istically": 8726,
      "onym": 8727,
      "icians": 8728,
      "Ġrefuse": 8729,
      "Ġsuffer": 8730,
      "Ġpenet": 8731,
      "ĠPublications": 8732,
      "uw": 8733,
      "orous": 8734,
      "Ġ137": 8735,
      "Ġ484": 8736,
      "Ġnephe": 8737,
      "idi": 8738,
      "ĠYakut": 8739,
      "eh": 8740,
      "Ġpurchased": 8741,
      "ĠTen": 8742,
      "99": 8743,
      "ĠEss": 8744,
      "Ġplays": 8745,
      "Ġdiscrim": 8746,
      "Ġadjacent": 8747,
      "ĠSix": 8748,
      "Ġaffil": 8749,
      "EU": 8750,
      "Ġornament": 8751,
      "ĠMand": 8752,
      "ĠTOWNS": 8753,
      "Ġrepresentation": 8754,
      "rick": 8755,
      "Ġintegration": 8756,
      "Ġfingers": 8757,
      "ĠProtest": 8758,
      "rose": 8759,
      "ĠPREHIST": 8760,
      "Ġintermedi": 8761,
      "ĠAsian": 8762,
      "Ġindirect": 8763,
      "Ġdegrees": 8764,
      "ĠComp": 8765,
      "istent": 8766,
      "Ġdepending": 8767,
      "ĠSpani": 8768,
      "Ġnose": 8769,
      "ĠSat": 8770,
      "ĠBrown": 8771,
      "Ġsorcery": 8772,
      "VERS": 8773,
      "Ġteam": 8774,
      "cean": 8775,
      "ounted": 8776,
      "ĠHarvard": 8777,
      "ĠNorthwest": 8778,
      "Ġcommittee": 8779,
      "avanese": 8780,
      "Ġfeels": 8781,
      "duces": 8782,
      "TIQUETTE": 8783,
      "ĠâĢĵ": 8784,
      "ĠETIQUETTE": 8785,
      "Ġcommod": 8786,
      "Ġ532": 8787,
      "Ġremind": 8788,
      "Ġ671": 8789,
      "Ġallot": 8790,
      "ĠImp": 8791,
      "clusion": 8792,
      "Ġsurrounded": 8793,
      "zo": 8794,
      "131": 8795,
      "Ġrecall": 8796,
      "Ġouter": 8797,
      "74": 8798,
      "Ġexhaust": 8799,
      "Ġwrapped": 8800,
      "ĠPREHISTORY": 8801,
      "ĠVict": 8802,
      "Ġfederal": 8803,
      "Ġcelebration": 8804,
      "ĠThird": 8805,
      "about": 8806,
      "Ġoverall": 8807,
      "ĠPublic": 8808,
      "Ġbeside": 8809,
      "Ġtall": 8810,
      "ĠTik": 8811,
      "Ġcf": 8812,
      "Ġsuspic": 8813,
      "ift": 8814,
      "Ġuncom": 8815,
      "ĠTlingit": 8816,
      "Ġcosts": 8817,
      "ctic": 8818,
      "apir": 8819,
      "LID": 8820,
      "ĠRock": 8821,
      "Ġfinger": 8822,
      "Ġsuddenly": 8823,
      "226": 8824,
      "bel": 8825,
      "Ġvisible": 8826,
      "forced": 8827,
      "iams": 8828,
      "Ġrope": 8829,
      "inating": 8830,
      "Ġrab": 8831,
      "Ġtaxes": 8832,
      "Ġseeking": 8833,
      "Ġraising": 8834,
      "Ġ73": 8835,
      "ĠMUT": 8836,
      "92": 8837,
      "Ġevidently": 8838,
      "Ġinvari": 8839,
      "ealous": 8840,
      "Ġornaments": 8841,
      "Ġfill": 8842,
      "ĠINFANT": 8843,
      "ĠSom": 8844,
      "Ġ113": 8845,
      "Ġimplies": 8846,
      "ĠDAYS": 8847,
      "Ġ126": 8848,
      "Ġweapons": 8849,
      "El": 8850,
      "Ġ1925": 8851,
      "Ġprovinces": 8852,
      "MINIST": 8853,
      "Â°": 8854,
      "Ġcave": 8855,
      "Ġstores": 8856,
      "Ġcorporate": 8857,
      "Se": 8858,
      "Ġemphasized": 8859,
      "night": 8860,
      "Ġcontinuity": 8861,
      "ĠADMINIST": 8862,
      "Ġdecade": 8863,
      "ĠArchaeological": 8864,
      "fortunately": 8865,
      "atoes": 8866,
      "erties": 8867,
      "Ġwalked": 8868,
      "ETHNIC": 8869,
      "Ġimmigration": 8870,
      "127": 8871,
      "ĠFl": 8872,
      "Ġplans": 8873,
      "ĠMUTUAL": 8874,
      "Ġ601": 8875,
      "ĠHOLID": 8876,
      "ĠHOLIDAYS": 8877,
      "Ġol": 8878,
      "ETRY": 8879,
      "ĠOt": 8880,
      "Ġoutsiders": 8881,
      "Ġthrew": 8882,
      "Ġsufficiently": 8883,
      "Ġsolution": 8884,
      "Ġnurs": 8885,
      "eder": 8886,
      "ĠNavajos": 8887,
      "ewa": 8888,
      "ĠENTER": 8889,
      "MATE": 8890,
      "Ġretained": 8891,
      "ĠSol": 8892,
      "ĠProp": 8893,
      "Ġreign": 8894,
      "ĠLING": 8895,
      "icted": 8896,
      "Ġcomparable": 8897,
      "Ġ252": 8898,
      "Ġ564": 8899,
      "Ġ1926": 8900,
      "',": 8901,
      "thm": 8902,
      "sey": 8903,
      "Ġplanning": 8904,
      "Ġseasonal": 8905,
      "Ġargue": 8906,
      "Ġ619": 8907,
      "adequ": 8908,
      "Ġgest": 8909,
      "ĠOra": 8910,
      "601": 8911,
      "Ġ721": 8912,
      "Ġreplace": 8913,
      "Ġ72": 8914,
      "ĠCLIMATE": 8915,
      "onga": 8916,
      "Ġstable": 8917,
      "amese": 8918,
      "Ġscheme": 8919,
      "stream": 8920,
      "ustration": 8921,
      "ĠLINGUIS": 8922,
      "Ġvicinity": 8923,
      "zer": 8924,
      "Ġcastes": 8925,
      "Ġbureau": 8926,
      "ĠMap": 8927,
      "Ġreflects": 8928,
      "Ġplatform": 8929,
      "oux": 8930,
      "Ġcontinuing": 8931,
      "icide": 8932,
      "Ġprofession": 8933,
      "'re": 8934,
      "ĠÃ©t": 8935,
      "orter": 8936,
      "83": 8937,
      "ĠIslamic": 8938,
      "Ġartifacts": 8939,
      "ĠYear": 8940,
      "Ġstomach": 8941,
      "ĠJud": 8942,
      "Ġcolle": 8943,
      "iii": 8944,
      "ĠPLACE": 8945,
      "gregation": 8946,
      "538": 8947,
      "Ġdepth": 8948,
      "ĠLINGUISTIC": 8949,
      "Ġanger": 8950,
      "Ġchicken": 8951,
      "ĠDRUGS": 8952,
      "ĠPost": 8953,
      "Ġresource": 8954,
      "200": 8955,
      "Ġfifth": 8956,
      "ĠRoyal": 8957,
      "Ġmask": 8958,
      "aran": 8959,
      "ĠPenn": 8960,
      "ĠBi": 8961,
      "ĠSac": 8962,
      "asts": 8963,
      "Ġadaptation": 8964,
      "Ġanti": 8965,
      "Ã£o": 8966,
      "ront": 8967,
      "81": 8968,
      "ĠViet": 8969,
      "755": 8970,
      "Ġessay": 8971,
      "Ġdrawing": 8972,
      "ĠAbout": 8973,
      "Ġsurpl": 8974,
      "Ġ461": 8975,
      "ĠSPE": 8976,
      "ĠPalestin": 8977,
      "Ġchest": 8978,
      "ĠHall": 8979,
      "Ġtort": 8980,
      "Ġmurd": 8981,
      "OPER": 8982,
      "Ġ243": 8983,
      "ĠGree": 8984,
      "Ġmanaged": 8985,
      "Ġ71": 8986,
      "EUTIC": 8987,
      "ĠWis": 8988,
      "THERAPEUTIC": 8989,
      "pelled": 8990,
      "Ġappeal": 8991,
      "Ġtransformation": 8992,
      "82": 8993,
      "ĠAdminist": 8994,
      "Ġquantities": 8995,
      "Ġnewsp": 8996,
      "Ġvirtue": 8997,
      "term": 8998,
      "Ġconstituted": 8999,
      "ĠRico": 9000,
      "Ġ226": 9001,
      "Ġcriteria": 9002,
      "Ġquoted": 9003,
      "Ġ463": 9004,
      "Ġmasks": 9005,
      "Ġsemi": 9006,
      "Ġsket": 9007,
      "Ġstrengthen": 9008,
      "ĠBro": 9009,
      "Ġstrip": 9010,
      "Ġhang": 9011,
      "Ġcolored": 9012,
      "ĠSand": 9013,
      "Ġimposed": 9014,
      "Ġreveal": 9015,
      "Ġprehistoric": 9016,
      "pi": 9017,
      "Ġrespective": 9018,
      "Ã¯": 9019,
      "76": 9020,
      "ĠParty": 9021,
      "Ġcriticism": 9022,
      "Ġloyal": 9023,
      "BOR": 9024,
      "ogen": 9025,
      "Ġsupplied": 9026,
      "PRO": 9027,
      "brother": 9028,
      "ication": 9029,
      "leys": 9030,
      "Ġerr": 9031,
      "inowski": 9032,
      "Ġholy": 9033,
      "olly": 9034,
      "ĠOtt": 9035,
      "Ġdiameter": 9036,
      "Ġphotographs": 9037,
      "GET": 9038,
      "Ġaccident": 9039,
      "ĠWay": 9040,
      "Ġtrace": 9041,
      "Ġdesignated": 9042,
      "uta": 9043,
      "ĠSPEECH": 9044,
      "Ġcopper": 9045,
      "mission": 9046,
      "Then": 9047,
      "Ġedition": 9048,
      "ĠINSTR": 9049,
      "Ġbrown": 9050,
      "ĠINSTRUMENTS": 9051,
      "oston": 9052,
      "Ġplots": 9053,
      "asant": 9054,
      "ĠBOR": 9055,
      "Ġtight": 9056,
      "istan": 9057,
      "Ġillustrate": 9058,
      "ĠMedicine": 9059,
      "ĠSte": 9060,
      "Ġphrase": 9061,
      "arts": 9062,
      "Ġaccurate": 9063,
      "Ġreserve": 9064,
      "Ġbesides": 9065,
      "Ġgrazing": 9066,
      "Ġroute": 9067,
      "252": 9068,
      "ogene": 9069,
      "Ġadopt": 9070,
      "ĠKl": 9071,
      "Ġdiverse": 9072,
      "NEL": 9073,
      "Ġtaboos": 9074,
      "ĠSC": 9075,
      "Ġ85": 9076,
      "trib": 9077,
      "how": 9078,
      "Ġignor": 9079,
      "Ġsixty": 9080,
      "eram": 9081,
      "Ġvaries": 9082,
      "Ġessays": 9083,
      "Ġelection": 9084,
      "174": 9085,
      "Ġadoles": 9086,
      "ĠBuddh": 9087,
      "Ġtransition": 9088,
      "ĠVEGET": 9089,
      "pat": 9090,
      "ĠLewis": 9091,
      "Ġnoble": 9092,
      "Ġ161": 9093,
      "mann": 9094,
      "ĠMongols": 9095,
      "ĠOTHER": 9096,
      "Ġashes": 9097,
      "Ġpey": 9098,
      "vis": 9099,
      "ĠMARITAL": 9100,
      "Ġpresumably": 9101,
      "Ġ74": 9102,
      "atto": 9103,
      "ĠJavanese": 9104,
      "ĠHawaiian": 9105,
      "De": 9106,
      "Ġprol": 9107,
      "Ġsimult": 9108,
      "ĠRather": 9109,
      "ĠCOOPER": 9110,
      "Ġblacks": 9111,
      "Ġoccupy": 9112,
      "Ġhumans": 9113,
      "Ġconsciousness": 9114,
      "Ġ1944": 9115,
      "ĠVEGETABLE": 9116,
      "ĠImm": 9117,
      "uese": 9118,
      "ĠWin": 9119,
      "ĠPhiladelphia": 9120,
      "ierra": 9121,
      "Ġwash": 9122,
      "578": 9123,
      "inarily": 9124,
      "ĠTob": 9125,
      "rage": 9126,
      "ĠSon": 9127,
      "Ġrose": 9128,
      "86": 9129,
      "Ġkiva": 9130,
      "Ġeffectively": 9131,
      "ĠLANG": 9132,
      "Ġstrategy": 9133,
      "ĠCateg": 9134,
      "Ġ412": 9135,
      "Ġ857": 9136,
      "Ġengage": 9137,
      "ĠFred": 9138,
      "umer": 9139,
      "Ġpasses": 9140,
      "Ġcontradict": 9141,
      "ĠTom": 9142,
      "ĠLower": 9143,
      "Ġdefine": 9144,
      "iche": 9145,
      "Ġdeclared": 9146,
      "ĠKroeber": 9147,
      "arest": 9148,
      "Con": 9149,
      "Ġ435": 9150,
      "Ġovert": 9151,
      "Ġfestivals": 9152,
      "Ġinadequ": 9153,
      "erted": 9154,
      "iao": 9155,
      "ĠStat": 9156,
      "Ġbreat": 9157,
      "attles": 9158,
      "Ġfreely": 9159,
      "ĠGra": 9160,
      "aa": 9161,
      "ĠCHILDREN": 9162,
      "Ġ842": 9163,
      "Ġgenealogical": 9164,
      "161": 9165,
      "QUES": 9166,
      "Ġdeeply": 9167,
      "Ġ779": 9168,
      "Ġ753": 9169,
      "irts": 9170,
      "Ġstrategies": 9171,
      "Ġ312": 9172,
      "Ġtrained": 9173,
      "ĠTerrit": 9174,
      "Ġreceiving": 9175,
      "Ġlaborers": 9176,
      "cription": 9177,
      ".'": 9178,
      "Ġforests": 9179,
      "Ġasks": 9180,
      "Ġdiversity": 9181,
      "ĠMichael": 9182,
      "isfortun": 9183,
      "Ġcompensation": 9184,
      "grand": 9185,
      "ĠCOOPERATIVE": 9186,
      "Ġincest": 9187,
      "ENDING": 9188,
      "ROWING": 9189,
      "paper": 9190,
      "Ġremove": 9191,
      "593": 9192,
      "Ġshoulder": 9193,
      "Ġconfusion": 9194,
      "rd": 9195,
      "isi": 9196,
      "ĠThai": 9197,
      "Ġ1927": 9198,
      "84": 9199,
      "Ġnations": 9200,
      "ĠBUSIN": 9201,
      "Ġspeakers": 9202,
      "Ġhospit": 9203,
      "ĠGRAM": 9204,
      "ĠItaly": 9205,
      "Ġshells": 9206,
      "ako": 9207,
      "utu": 9208,
      "ĠBORROWING": 9209,
      "ĠLENDING": 9210,
      "Ġobjective": 9211,
      "Ġsegments": 9212,
      "93": 9213,
      "Ġtwentieth": 9214,
      "rend": 9215,
      "Ġrelating": 9216,
      "isa": 9217,
      "asted": 9218,
      "Ġclimate": 9219,
      "Ġamongst": 9220,
      "Ġdescriptive": 9221,
      "Ġforgot": 9222,
      "Äģn": 9223,
      "AK": 9224,
      "Ġcode": 9225,
      "otion": 9226,
      "Ġfacilit": 9227,
      "ĠGRAMMAR": 9228,
      "Ġhereditary": 9229,
      "Ġrising": 9230,
      "ules": 9231,
      "adays": 9232,
      "wat": 9233,
      "real": 9234,
      "Ġsystematic": 9235,
      "Ġacad": 9236,
      "Ġcuring": 9237,
      "Ġvegetables": 9238,
      "ĠMu": 9239,
      "Ġdemanded": 9240,
      "ĠÎ": 9241,
      "ĠHawaii": 9242,
      "ĠColor": 9243,
      "Ì£": 9244,
      "Ġilleg": 9245,
      "Ġstrangers": 9246,
      "iller": 9247,
      "ĠLANGU": 9248,
      "Ġintense": 9249,
      "Ġvariable": 9250,
      "Ġtemples": 9251,
      "Ġconcrete": 9252,
      "Ġmine": 9253,
      "burg": 9254,
      "Ġdescribing": 9255,
      "Ġcul": 9256,
      "Ġ76": 9257,
      "Ġestimate": 9258,
      "itual": 9259,
      "Ġ765": 9260,
      "RYING": 9261,
      "Ġpreparing": 9262,
      "Ġ629": 9263,
      "Ġamounts": 9264,
      "ĠMartin": 9265,
      "far": 9266,
      "ĠBab": 9267,
      "iece": 9268,
      "Ġpredict": 9269,
[...]
